{
  "version": "1.0",
  "truncation": null,
  "padding": null,
  "added_tokens": [
    {
      "id": 0,
      "content": "<unk>",
      "single_word": false,
      "lstrip": false,
      "rstrip": false,
      "normalized": false,
      "special": true
    }
  ],
  "normalizer": {
    "type": "NFKC"
  },
  "pre_tokenizer": {
    "type": "Metaspace",
    "replacement": "▁",
    "prepend_scheme": "always",
    "split": true
  },
  "post_processor": null,
  "decoder": {
    "type": "Metaspace",
    "replacement": "▁",
    "prepend_scheme": "always",
    "split": true
  },
  "model": {
    "type": "BPE",
    "dropout": null,
    "unk_token": "<unk>",
    "continuing_subword_prefix": null,
    "end_of_word_suffix": null,
    "fuse_unk": false,
    "byte_fallback": false,
    "ignore_merges": false,
    "vocab": {
      "<unk>": 0,
      "\t": 1,
      "\n": 2,
      "\r": 3,
      "!": 4,
      "\"": 5,
      "#": 6,
      "$": 7,
      "%": 8,
      "&": 9,
      "'": 10,
      "(": 11,
      ")": 12,
      "*": 13,
      "+": 14,
      ",": 15,
      "-": 16,
      ".": 17,
      "/": 18,
      "0": 19,
      "1": 20,
      "2": 21,
      "3": 22,
      "4": 23,
      "5": 24,
      "6": 25,
      "7": 26,
      "8": 27,
      "9": 28,
      ":": 29,
      ";": 30,
      "<": 31,
      "=": 32,
      ">": 33,
      "?": 34,
      "@": 35,
      "A": 36,
      "B": 37,
      "C": 38,
      "D": 39,
      "E": 40,
      "F": 41,
      "G": 42,
      "H": 43,
      "I": 44,
      "J": 45,
      "K": 46,
      "L": 47,
      "M": 48,
      "N": 49,
      "O": 50,
      "P": 51,
      "Q": 52,
      "R": 53,
      "S": 54,
      "T": 55,
      "U": 56,
      "V": 57,
      "W": 58,
      "X": 59,
      "Y": 60,
      "Z": 61,
      "[": 62,
      "\\": 63,
      "]": 64,
      "^": 65,
      "_": 66,
      "`": 67,
      "a": 68,
      "b": 69,
      "c": 70,
      "d": 71,
      "e": 72,
      "f": 73,
      "g": 74,
      "h": 75,
      "i": 76,
      "j": 77,
      "k": 78,
      "l": 79,
      "m": 80,
      "n": 81,
      "o": 82,
      "p": 83,
      "q": 84,
      "r": 85,
      "s": 86,
      "t": 87,
      "u": 88,
      "v": 89,
      "w": 90,
      "x": 91,
      "y": 92,
      "z": 93,
      "{": 94,
      "|": 95,
      "}": 96,
      "~": 97,
      "": 98,
      "": 99,
      "": 100,
      "": 101,
      "": 102,
      "": 103,
      "": 104,
      "": 105,
      "": 106,
      "": 107,
      "¡": 108,
      "¢": 109,
      "£": 110,
      "¤": 111,
      "¥": 112,
      "¦": 113,
      "§": 114,
      "©": 115,
      "«": 116,
      "¬": 117,
      "­": 118,
      "®": 119,
      "°": 120,
      "±": 121,
      "¶": 122,
      "·": 123,
      "»": 124,
      "¿": 125,
      "Á": 126,
      "Â": 127,
      "Ã": 128,
      "Ä": 129,
      "Å": 130,
      "Æ": 131,
      "Ç": 132,
      "È": 133,
      "É": 134,
      "Ê": 135,
      "Í": 136,
      "Î": 137,
      "Ð": 138,
      "Ñ": 139,
      "Ó": 140,
      "Ô": 141,
      "Õ": 142,
      "Ö": 143,
      "×": 144,
      "Ø": 145,
      "Ù": 146,
      "Ü": 147,
      "Þ": 148,
      "à": 149,
      "á": 150,
      "â": 151,
      "ã": 152,
      "ä": 153,
      "å": 154,
      "æ": 155,
      "ç": 156,
      "è": 157,
      "é": 158,
      "ê": 159,
      "ë": 160,
      "í": 161,
      "î": 162,
      "ð": 163,
      "ñ": 164,
      "ò": 165,
      "ó": 166,
      "ö": 167,
      "÷": 168,
      "ø": 169,
      "ù": 170,
      "ú": 171,
      "û": 172,
      "ü": 173,
      "ý": 174,
      "ÿ": 175,
      "ē": 176,
      "ę": 177,
      "Ī": 178,
      "ī": 179,
      "į": 180,
      "ı": 181,
      "Ĺ": 182,
      "ľ": 183,
      "ł": 184,
      "ō": 185,
      "œ": 186,
      "ř": 187,
      "Ś": 188,
      "š": 189,
      "ţ": 190,
      "Ũ": 191,
      "ũ": 192,
      "ų": 193,
      "Ə": 194,
      "ƒ": 195,
      "Ƽ": 196,
      "Ȁ": 197,
      "ȟ": 198,
      "ȯ": 199,
      "Ⱥ": 200,
      "ȿ": 201,
      "ɛ": 202,
      "˂": 203,
      "˃": 204,
      "ˆ": 205,
      "́": 206,
      "̃": 207,
      "̄": 208,
      "̈": 209,
      "̧": 210,
      "μ": 211,
      "π": 212,
      "ϸ": 213,
      "А": 214,
      "Б": 215,
      "В": 216,
      "Г": 217,
      "Е": 218,
      "Ж": 219,
      "З": 220,
      "И": 221,
      "Й": 222,
      "К": 223,
      "Л": 224,
      "М": 225,
      "Н": 226,
      "О": 227,
      "П": 228,
      "Р": 229,
      "У": 230,
      "Ф": 231,
      "Х": 232,
      "Ц": 233,
      "Ч": 234,
      "Ш": 235,
      "Щ": 236,
      "Ъ": 237,
      "Ы": 238,
      "Ь": 239,
      "Э": 240,
      "Ю": 241,
      "Я": 242,
      "а": 243,
      "б": 244,
      "в": 245,
      "г": 246,
      "д": 247,
      "е": 248,
      "ж": 249,
      "з": 250,
      "и": 251,
      "й": 252,
      "к": 253,
      "л": 254,
      "м": 255,
      "н": 256,
      "о": 257,
      "п": 258,
      "р": 259,
      "с": 260,
      "у": 261,
      "я": 262,
      "ԏ": 263,
      "ا": 264,
      "ب": 265,
      "ح": 266,
      "ر": 267,
      "س": 268,
      "ش": 269,
      "ص": 270,
      "غ": 271,
      "ك": 272,
      "م": 273,
      "ن": 274,
      "ه": 275,
      "ي": 276,
      "ً": 277,
      "َ": 278,
      "ُ": 279,
      "ِ": 280,
      "ّ": 281,
      "ْ": 282,
      "߶": 283,
      "।": 284,
      "॥": 285,
      "ঁ": 286,
      "ং": 287,
      "ঃ": 288,
      "অ": 289,
      "আ": 290,
      "ই": 291,
      "ঈ": 292,
      "উ": 293,
      "ঊ": 294,
      "ঋ": 295,
      "ঌ": 296,
      "এ": 297,
      "ঐ": 298,
      "ও": 299,
      "ঔ": 300,
      "ক": 301,
      "খ": 302,
      "গ": 303,
      "ঘ": 304,
      "ঙ": 305,
      "চ": 306,
      "ছ": 307,
      "জ": 308,
      "ঝ": 309,
      "ঞ": 310,
      "ট": 311,
      "ঠ": 312,
      "ড": 313,
      "ঢ": 314,
      "ণ": 315,
      "ত": 316,
      "থ": 317,
      "দ": 318,
      "ধ": 319,
      "ন": 320,
      "প": 321,
      "ফ": 322,
      "ব": 323,
      "ভ": 324,
      "ম": 325,
      "য": 326,
      "র": 327,
      "ল": 328,
      "শ": 329,
      "ষ": 330,
      "স": 331,
      "হ": 332,
      "়": 333,
      "া": 334,
      "ি": 335,
      "ী": 336,
      "ু": 337,
      "ূ": 338,
      "ৃ": 339,
      "ে": 340,
      "ৈ": 341,
      "ো": 342,
      "ৌ": 343,
      "্": 344,
      "ৎ": 345,
      "ৗ": 346,
      "৤": 347,
      "৥": 348,
      "০": 349,
      "১": 350,
      "২": 351,
      "৩": 352,
      "৪": 353,
      "৫": 354,
      "৬": 355,
      "৭": 356,
      "৮": 357,
      "৯": 358,
      "ৰ": 359,
      "ৱ": 360,
      "৳": 361,
      "৴": 362,
      "৵": 363,
      "৶": 364,
      "৷": 365,
      "৹": 366,
      "​": 367,
      "‌": 368,
      "‍": 369,
      "‎": 370,
      "‏": 371,
      "‐": 372,
      "–": 373,
      "—": 374,
      "‘": 375,
      "’": 376,
      "‚": 377,
      "“": 378,
      "”": 379,
      "„": 380,
      "†": 381,
      "‡": 382,
      "•": 383,
      "‪": 384,
      "‬": 385,
      "‰": 386,
      "′": 387,
      "›": 388,
      "⁄": 389,
      "€": 390,
      "→": 391,
      "⇒": 392,
      "∏": 393,
      "−": 394,
      "∗": 395,
      "√": 396,
      "∞": 397,
      "∣": 398,
      "⎯": 399,
      "─": 400,
      "│": 401,
      "┐": 402,
      "┤": 403,
      "┬": 404,
      "║": 405,
      "╓": 406,
      "╕": 407,
      "╖": 408,
      "╗": 409,
      "╚": 410,
      "╛": 411,
      "╜": 412,
      "╝": 413,
      "╞": 414,
      "╟": 415,
      "╠": 416,
      "╢": 417,
      "╣": 418,
      "╨": 419,
      "╬": 420,
      "▁": 421,
      "▐": 422,
      "░": 423,
      "▒": 424,
      "▓": 425,
      "■": 426,
      "◊": 427,
      "●": 428,
      "☀": 429,
      "★": 430,
      "☼": 431,
      "♥": 432,
      "♦": 433,
      "✴": 434,
      "❒": 435,
      "い": 436,
      "か": 437,
      "く": 438,
      "さ": 439,
      "し": 440,
      "だ": 441,
      "て": 442,
      "に": 443,
      "ら": 444,
      "化": 445,
      "参": 446,
      "学": 447,
      "安": 448,
      "文": 449,
      "日": 450,
      "省": 451,
      "祭": 452,
      "科": 453,
      "裥": 454,
      "観": 455,
      "部": 456,
      "零": 457,
      "静": 458,
      "관": 459,
      "방": 460,
      "시": 461,
      "유": 462,
      "적": 463,
      "전": 464,
      "제": 465,
      "": 466,
      "": 467,
      "": 468,
      "": 469,
      "": 470,
      "": 471,
      "": 472,
      "": 473,
      "": 474,
      "": 475,
      "": 476,
      "": 477,
      "": 478,
      "": 479,
      "": 480,
      "": 481,
      "": 482,
      "": 483,
      "": 484,
      "": 485,
      "": 486,
      "": 487,
      "": 488,
      "": 489,
      "": 490,
      "": 491,
      "": 492,
      "": 493,
      "": 494,
      "": 495,
      "": 496,
      "": 497,
      "": 498,
      "": 499,
      "": 500,
      "": 501,
      "": 502,
      "": 503,
      "": 504,
      "": 505,
      "": 506,
      "": 507,
      "": 508,
      "": 509,
      "": 510,
      "": 511,
      "": 512,
      "": 513,
      "": 514,
      "": 515,
      "": 516,
      "": 517,
      "": 518,
      "": 519,
      "": 520,
      "": 521,
      "": 522,
      "": 523,
      "": 524,
      "": 525,
      "": 526,
      "": 527,
      "": 528,
      "": 529,
      "": 530,
      "": 531,
      "": 532,
      "": 533,
      "": 534,
      "": 535,
      "": 536,
      "": 537,
      "": 538,
      "": 539,
      "": 540,
      "": 541,
      "": 542,
      "": 543,
      "": 544,
      "": 545,
      "": 546,
      "": 547,
      "�": 548,
      "🌅": 549,
      "🌈": 550,
      "💜": 551,
      "🙂": 552,
      "য়": 553,
      "ার": 554,
      "▁ক": 555,
      "▁ব": 556,
      "ের": 557,
      "▁স": 558,
      "▁প": 559,
      "্র": 560,
      "্য": 561,
      "ান": 562,
      "▁আ": 563,
      "▁ম": 564,
      "▁হ": 565,
      "▁এ": 566,
      "▁ন": 567,
      "▁দ": 568,
      "েন": 569,
      "্ত": 570,
      "য়ে": 571,
      "▁ত": 572,
      "▁কর": 573,
      "▁অ": 574,
      "াল": 575,
      "▁জ": 576,
      "কে": 577,
      "ায়": 578,
      "িন": 579,
      "াম": 580,
      "ির": 581,
      "▁প্র": 582,
      "তে": 583,
      "িক": 584,
      "ছে": 585,
      "▁শ": 586,
      "▁গ": 587,
      "▁র": 588,
      "ড়": 589,
      "লা": 590,
      "্ব": 591,
      "টি": 592,
      "লে": 593,
      "▁চ": 594,
      "▁ও": 595,
      "বে": 596,
      "▁য": 597,
      "▁বি": 598,
      "িয়ে": 599,
      "াস": 600,
      "ুর": 601,
      "্ষ": 602,
      "াক": 603,
      "্ট": 604,
      "▁উ": 605,
      "তি": 606,
      "▁পর": 607,
      "দের": 608,
      "াজ": 609,
      "▁ভ": 610,
      "ুল": 611,
      "িল": 612,
      "▁তা": 613,
      "িত": 614,
      "▁থ": 615,
      "্থ": 616,
      "াত": 617,
      "▁এক": 618,
      "▁বা": 619,
      "েশ": 620,
      "▁করে": 621,
      "▁সম": 622,
      "্যা": 623,
      "য়া": 624,
      "▁ছ": 625,
      "ছে।": 626,
      "্ম": 627,
      "াই": 628,
      "▁খ": 629,
      "েন।": 630,
      "▁ফ": 631,
      "নে": 632,
      "্দ": 633,
      "রা": 634,
      "▁ই": 635,
      "▁না": 636,
      "ঙ্": 637,
      "বার": 638,
      "্প": 639,
      "্ধ": 640,
      "▁হয়ে": 641,
      "েল": 642,
      "েন,": 643,
      "ন্ত": 644,
      "বি": 645,
      "য়ার": 646,
      "ক্ষ": 647,
      "▁দে": 648,
      "াপ": 649,
      "েকে": 650,
      "গে": 651,
      "কার": 652,
      "▁তাঁ": 653,
      "▁বল": 654,
      "বা": 655,
      "নের": 656,
      "র্": 657,
      "▁আম": 658,
      "▁থেকে": 659,
      "▁হয়": 660,
      "▁নি": 661,
      "▁ট": 662,
      "ক্ত": 663,
      "নি": 664,
      "▁সে": 665,
      "▁জন": 666,
      "োগ": 667,
      "▁১": 668,
      "না": 669,
      "▁ল": 670,
      "টা": 671,
      "▁ঘ": 672,
      "▁পা": 673,
      "চ্": 674,
      "িনি": 675,
      "িস": 676,
      "িশ": 677,
      "▁‘": 678,
      "▁কো": 679,
      "ভা": 680,
      "রে": 681,
      "তা": 682,
      "▁জান": 683,
      "▁করা": 684,
      "▁অন": 685,
      "▁নে": 686,
      "্ড": 687,
      "্ন": 688,
      "▁এই": 689,
      "▁ধ": 690,
      "▁সা": 691,
      "ীর": 692,
      "▁(": 693,
      "▁সং": 694,
      "ধ্য": 695,
      "ষ্": 696,
      "নো": 697,
      "▁নির": 698,
      "▁আর": 699,
      "▁পার": 700,
      "ওয়া": 701,
      "▁মা": 702,
      "জন": 703,
      "ীয়": 704,
      "▁পরি": 705,
      "ুন": 706,
      "▁ব্য": 707,
      "▁২": 708,
      "▁দু": 709,
      "োর": 710,
      "▁বলেন,": 711,
      "▁কার": 712,
      "▁উপ": 713,
      "স্থ": 714,
      "▁নিয়ে": 715,
      "দ্ধ": 716,
      "ানে": 717,
      "দেশ": 718,
      "▁আল": 719,
      "▁প্রতি": 720,
      "▁ড": 721,
      "▁তিনি": 722,
      "▁কা": 723,
      "▁যা": 724,
      "াকা": 725,
      "্রে": 726,
      "▁জন্য": 727,
      "ছিল": 728,
      "▁যে": 729,
      "ঙ্গে": 730,
      "র্ত": 731,
      "▁হবে": 732,
      "েষ": 733,
      "াহ": 734,
      "▁মো": 735,
      "কাল": 736,
      "ংলা": 737,
      "্যান": 738,
      "মান": 739,
      "▁হয়।": 740,
      "ষ্ঠ": 741,
      "ঞ্": 742,
      "ছেন": 743,
      "িতে": 744,
      "▁আস": 745,
      "▁সর": 746,
      "পর": 747,
      "ড়ে": 748,
      "▁দিয়ে": 749,
      "▁সঙ্গে": 750,
      "যোগ": 751,
      "ড়া": 752,
      "ন্ত্র": 753,
      "▁গত": 754,
      "কা": 755,
      "▁বিশ": 756,
      "▁দেখ": 757,
      "▁ছিল": 758,
      "িকে": 759,
      "▁অব": 760,
      "ারা": 761,
      "▁মু": 762,
      "াদ": 763,
      "▁বাংলা": 764,
      "▁অভ": 765,
      "্স": 766,
      "▁কি": 767,
      "▁বলে": 768,
      "▁তাঁর": 769,
      "ঙ্গ": 770,
      "▁রা": 771,
      "মে": 772,
      "ি।": 773,
      "প্র": 774,
      "ছেন।": 775,
      "্বা": 776,
      "মা": 777,
      "কের": 778,
      "য়ের": 779,
      "েলা": 780,
      "্যাল": 781,
      "▁না।": 782,
      "থা": 783,
      "ওয়ার": 784,
      "▁একটি": 785,
      "▁হয়েছে।": 786,
      "িক্ষ": 787,
      "▁অনু": 788,
      "▁মধ্য": 789,
      "ন্দ": 790,
      "▁বাংলাদেশ": 791,
      "▁লা": 792,
      "াজার": 793,
      "টে": 794,
      "▁কর্ম": 795,
      "স্ত": 796,
      "মি": 797,
      "ষ্ট": 798,
      "▁মে": 799,
      "খন": 800,
      "▁করতে": 801,
      "রের": 802,
      "▁মান": 803,
      "▁সব": 804,
      "পুর": 805,
      "ত্ত": 806,
      "থম": 807,
      "ধান": 808,
      "▁দেশ": 809,
      "িয়": 810,
      "▁সু": 811,
      "্রাম": 812,
      "িয়া": 813,
      "াত্র": 814,
      "বং": 815,
      "ন্ধ": 816,
      "▁এবং": 817,
      "ালে": 818,
      "▁কোনো": 819,
      "সে": 820,
      "ুরু": 821,
      "▁এর": 822,
      "▁থাক": 823,
      "িব": 824,
      "▁মধ্যে": 825,
      "িম": 826,
      "▁সময়": 827,
      "▁বছ": 828,
      "▁ব্যব": 829,
      "গুল": 830,
      "িন্ত": 831,
      "িজ": 832,
      "মন": 833,
      "▁গে": 834,
      "ছে,": 835,
      "▁দিন": 836,
      "লের": 837,
      "▁সম্প": 838,
      "ভাবে": 839,
      "▁কথা": 840,
      "▁কাজ": 841,
      "্ক": 842,
      "চার": 843,
      "টার": 844,
      "▁ব্যা": 845,
      "রি": 846,
      "▁রাজ": 847,
      "▁বে": 848,
      "ান্ত": 849,
      "▁স্ব": 850,
      "ুক্ত": 851,
      "ুলিশ": 852,
      "ৃত": 853,
      "▁বিশ্ব": 854,
      "্ল": 855,
      "েয়ে": 856,
      "▁শিক্ষ": 857,
      "▁যায়": 858,
      "গের": 859,
      "িন্তু": 860,
      "▁হবে।": 861,
      "▁উদ": 862,
      "প্ত": 863,
      "▁সরকার": 864,
      "সি": 865,
      "▁নাম": 866,
      "▁সি": 867,
      "▁প্রথম": 868,
      "ছু": 869,
      "ানের": 870,
      "ার্থ": 871,
      "তো": 872,
      "ংশ": 873,
      "▁কে": 874,
      "নার": 875,
      "সব": 876,
      "▁কিন্তু": 877,
      "▁ঢ": 878,
      "▁ঘট": 879,
      "োল": 880,
      "▁তার": 881,
      "▁ভা": 882,
      "বাদ": 883,
      "▁অভি": 884,
      "ওয়": 885,
      "▁পুলিশ": 886,
      "▁২০": 887,
      "টির": 888,
      "▁বেশ": 889,
      "▁বিষ": 890,
      "স্ট": 891,
      "াঁ": 892,
      "ক্র": 893,
      "▁অনে": 894,
      "ামী": 895,
      "ে।": 896,
      "্বাচ": 897,
      "▁ওই": 898,
      "র্থ": 899,
      "▁আব": 900,
      "ত্র": 901,
      "▁ক্ষ": 902,
      "▁আই": 903,
      "▁উপজ": 904,
      "▁হচ্": 905,
      "▁হো": 906,
      "োধ": 907,
      "▁দুই": 908,
      "ানা": 909,
      "▁আলো": 910,
      "▁ইউ": 911,
      "ুষ": 912,
      "গুলো": 913,
      "▁শু": 914,
      "▁কিছু": 915,
      "▁সহ": 916,
      "ীন": 917,
      "ঞ্জ": 918,
      "লাম": 919,
      "▁আজ": 920,
      "েম": 921,
      "▁দেওয়া": 922,
      "▁নির্বাচ": 923,
      "ড়ি": 924,
      "▁সদ": 925,
      "▁আহ": 926,
      "▁কম": 927,
      "▁হাস": 928,
      "ুব": 929,
      "▁৩": 930,
      "▁সাম": 931,
      "ালো": 932,
      "াদের": 933,
      "ীদের": 934,
      "ারে": 935,
      "▁স্থ": 936,
      "▁আগে": 937,
      "্লা": 938,
      "ানো": 939,
      "ুম": 940,
      "▁এলা": 941,
      "▁কারণ": 942,
      "▁নিজ": 943,
      "পি": 944,
      "জ্": 945,
      "েন্ট": 946,
      "ুদ্ধ": 947,
      "ারণ": 948,
      "▁তবে": 949,
      "▁প্রশ": 950,
      "ীব": 951,
      "▁ইস": 952,
      "▁শেষ": 953,
      "▁শুরু": 954,
      "▁গতকাল": 955,
      "চিত": 956,
      "িদ": 957,
      "াব": 958,
      "দ্যাল": 959,
      "▁তিন": 960,
      "োট": 961,
      "▁বাস": 962,
      "▁মাম": 963,
      "ান।": 964,
      "▁হাজার": 965,
      "িন্ন": 966,
      "কর": 967,
      "▁হিস": 968,
      "▁করেন।": 969,
      "▁ভার": 970,
      "স্য": 971,
      "ই।": 972,
      "▁মানুষ": 973,
      "োক": 974,
      "▁প্রধান": 975,
      "খানে": 976,
      "▁করার": 977,
      "ানি": 978,
      "▁ধর": 979,
      "▁বির": 980,
      "▁হল": 981,
      "াকে": 982,
      "ব্য": 983,
      "এন": 984,
      "েত": 985,
      "▁পর্য": 986,
      "▁টাকা": 987,
      "▁ছা": 988,
      "▁রে": 989,
      "গ্র": 990,
      "য়ো": 991,
      "▁সভ": 992,
      "ঞ্চ": 993,
      "কর্ত": 994,
      "▁আদ": 995,
      "▁তাঁদের": 996,
      "▁অনেক": 997,
      "াতে": 998,
      "▁তো": 999,
      "▁বছর": 1000,
      "নায়": 1001,
      "ক্ষে": 1002,
      "ল্প": 1003,
      "ালের": 1004,
      "▁কর্মকর্ত": 1005,
      "নি।": 1006,
      "▁দল": 1007,
      "▁মহ": 1008,
      "েলার": 1009,
      "▁নয়": 1010,
      "▁কেন": 1011,
      "ক্তি": 1012,
      "গত": 1013,
      "▁এখন": 1014,
      "েবে": 1015,
      "▁রহ": 1016,
      "খে": 1017,
      "▁বিভ": 1018,
      "▁হলে": 1019,
      "র্শ": 1020,
      "ারের": 1021,
      "▁অধ": 1022,
      "ুক": 1023,
      "ঁচ": 1024,
      "▁দা": 1025,
      "▁চাল": 1026,
      "োন": 1027,
      "ান,": 1028,
      "▁আরও": 1029,
      "▁প্রত": 1030,
      "▁চল": 1031,
      "বে।": 1032,
      "িং": 1033,
      "▁ইসলাম": 1034,
      "ছেন,": 1035,
      "্বর": 1036,
      "রণ": 1037,
      "ূল": 1038,
      "সহ": 1039,
      "ন্ত্রী": 1040,
      "▁অনুষ্ঠ": 1041,
      "▁রাখ": 1042,
      "▁করেন": 1043,
      "▁মার": 1044,
      "рж": 1045,
      "▁ভালো": 1046,
      "▁৫": 1047,
      "▁আমার": 1048,
      "▁হিসেবে": 1049,
      "▁তাঁরা": 1050,
      "চাল": 1051,
      "▁আমি": 1052,
      "নী": 1053,
      "▁সেই": 1054,
      "পা": 1055,
      "▁বিভিন্ন": 1056,
      "সা": 1057,
      "▁হোস": 1058,
      "▁১০": 1059,
      "ীরা": 1060,
      "▁রয়ে": 1061,
      "লার": 1062,
      "ুদ": 1063,
      "▁আমরা": 1064,
      "তার": 1065,
      "▁সো": 1066,
      "▁লি": 1067,
      "▁রো": 1068,
      "▁অন্য": 1069,
      "▁৪": 1070,
      "▁আমাদের": 1071,
      "াপতি": 1072,
      "▁বড়": 1073,
      "তুন": 1074,
      "▁বাড়": 1075,
      "▁রহমান": 1076,
      "▁মাস": 1077,
      "▁আশ": 1078,
      "ষ্ট্র": 1079,
      "ষণ": 1080,
      "্যান্ড": 1081,
      "বর": 1082,
      "া।": 1083,
      "▁আগ": 1084,
      "র্ণ": 1085,
      "দি": 1086,
      "▁দেখা": 1087,
      "▁পর্যন্ত": 1088,
      "মিক": 1089,
      "বেশ": 1090,
      "য়ন": 1091,
      "কাশ": 1092,
      "▁দিকে": 1093,
      "▁চার": 1094,
      "্ভ": 1095,
      "বেদ": 1096,
      "▁কাছে": 1097,
      "এস": 1098,
      "বিদ্যাল": 1099,
      "হার": 1100,
      "▁নতুন": 1101,
      "▁গ্রাম": 1102,
      "▁মতো": 1103,
      "▁আপ": 1104,
      "▁পে": 1105,
      "স্থা": 1106,
      "দিন": 1107,
      "▁কী": 1108,
      "▁সদস্য": 1109,
      "ুলে": 1110,
      "সং": 1111,
      "তিক": 1112,
      "য়েক": 1113,
      "গর": 1114,
      "ঠে": 1115,
      "▁অর্থ": 1116,
      "▁ক্র": 1117,
      "▁অভিযোগ": 1118,
      "ডি": 1119,
      "▁মনে": 1120,
      "টের": 1121,
      "▁তাদের": 1122,
      "্টা": 1123,
      "▁বন্ধ": 1124,
      "▁গ্র": 1125,
      "▁ছাড়া": 1126,
      "▁নার": 1127,
      "ত্য": 1128,
      "▁দুর": 1129,
      "ত্ব": 1130,
      "▁সাং": 1131,
      "▁বৃ": 1132,
      "জি": 1133,
      "িকার": 1134,
      "▁অংশ": 1135,
      "পাত": 1136,
      "▁ফে": 1137,
      "▁বেশি": 1138,
      "তের": 1139,
      "▁এমন": 1140,
      "▁বু": 1141,
      "▁মি": 1142,
      "হা": 1143,
      "েই": 1144,
      "▁পড়ে": 1145,
      "মন্ত্রী": 1146,
      "▁লে": 1147,
      "▁সভাপতি": 1148,
      "▁ছে": 1149,
      "▁ম্যা": 1150,
      "▁মো.": 1151,
      "▁তাঁকে": 1152,
      "ণ্ড": 1153,
      "▁এসে": 1154,
      "ভাব": 1155,
      "ূর": 1156,
      "▁কয়েক": 1157,
      "▁অপ": 1158,
      "▁লী": 1159,
      "▁হতে": 1160,
      "গ্রাম": 1161,
      "জ্ঞ": 1162,
      "শি": 1163,
      "শ্": 1164,
      "সম": 1165,
      "▁করে।": 1166,
      "▁বিষয়": 1167,
      "▁জাত": 1168,
      "েয়ার": 1169,
      "ন্ন": 1170,
      "▁শহ": 1171,
      "▁পড়": 1172,
      "ধারণ": 1173,
      "▁ওপর": 1174,
      "▁ইউনি": 1175,
      "ি,": 1176,
      "্দ্র": 1177,
      "▁প্রতিষ্ঠ": 1178,
      "▁গা": 1179,
      "▁দেশের": 1180,
      "▁প্রায়": 1181,
      "▁ধরে": 1182,
      "গঞ্জ": 1183,
      "▁পাশ": 1184,
      "▁হয়েছে": 1185,
      "▁গো": 1186,
      "।’": 1187,
      "▁গিয়ে": 1188,
      "▁হলো": 1189,
      "বাস": 1190,
      "ওয়ামী": 1191,
      "ছি।": 1192,
      "▁বিভা": 1193,
      "▁কমি": 1194,
      "াকার": 1195,
      "▁ট্র": 1196,
      "ায়ী": 1197,
      "ুদ্ধে": 1198,
      "।\n": 1199,
      "▁ঢাকা": 1200,
      "পার": 1201,
      "▁কর্মকর্তা": 1202,
      "▁২০১": 1203,
      "▁নিয়": 1204,
      "▁আট": 1205,
      "▁পেয়ে": 1206,
      "ার্থী": 1207,
      "িকি": 1208,
      "ণের": 1209,
      "▁ম্যাচ": 1210,
      "▁দিতে": 1211,
      "▁বিশ্ববিদ্যাল": 1212,
      "▁পদ": 1213,
      "▁দলের": 1214,
      "▁একটা": 1215,
      "▁প্রকাশ": 1216,
      "খনো": 1217,
      "▁হোসেন": 1218,
      "▁আদাল": 1219,
      "দা": 1220,
      "িকা": 1221,
      "▁বিএন": 1222,
      "▁ইন": 1223,
      "▁থান": 1224,
      "▁সালে": 1225,
      "লেজ": 1226,
      "▁আওয়ামী": 1227,
      "▁ছাত্র": 1228,
      "▁দাবি": 1229,
      "▁পরে": 1230,
      "▁t": 1231,
      "▁পাঠ": 1232,
      "▁পুর": 1233,
      "▁নেই।": 1234,
      "▁জেলা": 1235,
      "▁বাংলাদেশের": 1236,
      "▁পরিচাল": 1237,
      "দুল": 1238,
      "্রি": 1239,
      "্যাম": 1240,
      "▁ঠ": 1241,
      "▁উত্ত": 1242,
      "থ্য": 1243,
      "পির": 1244,
      "স্": 1245,
      "▁অবস্থ": 1246,
      "কায়": 1247,
      "▁শ্র": 1248,
      "▁তৈ": 1249,
      "▁জাতীয়": 1250,
      "▁কারণে": 1251,
      "তির": 1252,
      "▁৬": 1253,
      "▁যায়।": 1254,
      "য়োজন": 1255,
      "কি": 1256,
      "▁চাই": 1257,
      "▁জানিয়ে": 1258,
      "▁তারা": 1259,
      "▁সকাল": 1260,
      "▁সম্পাদ": 1261,
      "▁সাধারণ": 1262,
      "▁স্ট": 1263,
      "ন।": 1264,
      "▁ঝ": 1265,
      "▁নেতা": 1266,
      "▁এসব": 1267,
      "▁বার": 1268,
      "▁সূ": 1269,
      "বাহ": 1270,
      "▁বিরুদ্ধে": 1271,
      "▁কলেজ": 1272,
      "▁পাঁচ": 1273,
      "্যু": 1274,
      "বির": 1275,
      "▁লাখ": 1276,
      "্যাপ": 1277,
      "▁প্রা": 1278,
      "বেন": 1279,
      "▁উপজেলার": 1280,
      "▁ছবি": 1281,
      "মার": 1282,
      "▁আইন": 1283,
      "▁তথ্য": 1284,
      "ীক্ষ": 1285,
      "ট্ট": 1286,
      "▁বিষয়ে": 1287,
      "▁যুক্ত": 1288,
      "ুঁ": 1289,
      "▁সম্ম": 1290,
      "▁শিশ": 1291,
      "্দিন": 1292,
      "ম্যান": 1293,
      "▁বলা": 1294,
      "িল্প": 1295,
      "চ্চ": 1296,
      "▁এম": 1297,
      "▁তাই": 1298,
      "▁হার": 1299,
      "আই": 1300,
      "he": 1301,
      "▁বো": 1302,
      "▁হা": 1303,
      "▁পাল": 1304,
      "▁প্রক": 1305,
      "▁মাধ্য": 1306,
      "হত": 1307,
      "ভার": 1308,
      "▁দ্ব": 1309,
      "▁এতে": 1310,
      "বারের": 1311,
      "▁আন": 1312,
      "▁স্থান": 1313,
      "ন্ত্রণ": 1314,
      "▁যোগ": 1315,
      "▁পাওয়া": 1316,
      "▁গণ": 1317,
      "ূর্ণ": 1318,
      "▁একজন": 1319,
      "ুট": 1320,
      "েক": 1321,
      "▁দায়": 1322,
      "ষ্টি": 1323,
      "▁হাম": 1324,
      "▁সম্পাদক": 1325,
      "র্জ": 1326,
      "০০": 1327,
      "ুণ": 1328,
      "দার": 1329,
      "্রু": 1330,
      "▁‘আ": 1331,
      "▁হাসপাত": 1332,
      "▁বৈ": 1333,
      "িস্ত": 1334,
      "কারী": 1335,
      "▁উপজেলা": 1336,
      "▁ঘো": 1337,
      "▁যাচ্": 1338,
      "▁চেয়ার": 1339,
      "ীল": 1340,
      "জা": 1341,
      "ড়িয়ে": 1342,
      "বল": 1343,
      "▁এলাকায়": 1344,
      "সের": 1345,
      "মু": 1346,
      "▁১৯": 1347,
      "্লে": 1348,
      "▁৭": 1349,
      "▁হচ্ছে।": 1350,
      "▁মূল": 1351,
      "▁খুব": 1352,
      "▁সড়": 1353,
      "▁আবার": 1354,
      "▁বর": 1355,
      "ায়।": 1356,
      "▁উৎ": 1357,
      "বর্ত": 1358,
      "▁ব্যাং": 1359,
      "▁লোক": 1360,
      "ট্টগ্রাম": 1361,
      "▁পৌ": 1362,
      "▁মামলা": 1363,
      "▁চৌ": 1364,
      "▁নেওয়া": 1365,
      "▁কেউ": 1366,
      "বন্ধ": 1367,
      "▁জানান,": 1368,
      "চনা": 1369,
      "▁সেখানে": 1370,
      "▁হওয়ার": 1371,
      "▁দি": 1372,
      "চ্ছ": 1373,
      "লী": 1374,
      "▁সংগ": 1375,
      "▁বিশেষ": 1376,
      "▁আছে।": 1377,
      "▁বক্ত": 1378,
      "▁জানা": 1379,
      "▁জীব": 1380,
      "্যের": 1381,
      "▁৮": 1382,
      "ানোর": 1383,
      "িকিৎ": 1384,
      "াস্ত": 1385,
      "িউ": 1386,
      "▁স্ক": 1387,
      "▁তখন": 1388,
      "▁খেল": 1389,
      "ধু": 1390,
      "▁শতা": 1391,
      "▁নির্বাচন": 1392,
      "▁টি": 1393,
      "ছিলেন": 1394,
      "▁মাল": 1395,
      "▁গেছে।": 1396,
      "েরা": 1397,
      "লেও": 1398,
      "ত্যা": 1399,
      "ছিল।": 1400,
      "▁দুটি": 1401,
      "▁বছরের": 1402,
      "▁গ্রে": 1403,
      "▁ফির": 1404,
      "ধুর": 1405,
      "▁লীগের": 1406,
      "▁পরীক্ষ": 1407,
      "▁চিকিৎ": 1408,
      "▁আলোকে": 1409,
      "দন্ত": 1410,
      "▁i": 1411,
      "ৈতিক": 1412,
      "▁বিচার": 1413,
      "র্ড": 1414,
      "▁বিপ": 1415,
      "িত্ব": 1416,
      "▁পারে।": 1417,
      "্দেশ": 1418,
      "▁সালের": 1419,
      "▁ঘটনা": 1420,
      "▁জু": 1421,
      "▁সংস": 1422,
      "▁উন্ন": 1423,
      "▁জাম": 1424,
      "▁ছিলেন": 1425,
      "্যে": 1426,
      "াস্থ": 1427,
      "▁a": 1428,
      "হাম": 1429,
      "▁অভিয": 1430,
      "্টার": 1431,
      "এর": 1432,
      "▁তৈরি": 1433,
      "▁উপস্থ": 1434,
      "েষ্টা": 1435,
      "▁করেছেন": 1436,
      "▁কোটি": 1437,
      "▁মাধ্যমে": 1438,
      "▁সার": 1439,
      "▁থাকে": 1440,
      "▁মিল": 1441,
      "রাষ্ট্র": 1442,
      "ষণা": 1443,
      "উন": 1444,
      "▁শাহ": 1445,
      "▁তুলে": 1446,
      "ায়ের": 1447,
      "▁হচ্ছে": 1448,
      "পক্ষ": 1449,
      "জে": 1450,
      "▁হয়,": 1451,
      "েখ": 1452,
      "▁দেওয়ার": 1453,
      "গ্রহ": 1454,
      "র্ক": 1455,
      "বেদন": 1456,
      "▁চৌধুর": 1457,
      "▁ধরনের": 1458,
      "▁চট্টগ্রাম": 1459,
      "▁ঠিক": 1460,
      "ৃতি": 1461,
      "▁চেয়ে": 1462,
      "দী": 1463,
      "▁উল": 1464,
      "িনে": 1465,
      "▁শিশু": 1466,
      "▁চলে": 1467,
      "▁গ্রেপ্ত": 1468,
      "▁করেছেন।": 1469,
      "নৈতিক": 1470,
      "▁বিক": 1471,
      "িতা": 1472,
      "▁যদি": 1473,
      "াপ্ত": 1474,
      "▁৯": 1475,
      "ধা": 1476,
      "কম": 1477,
      "▁উই": 1478,
      "কর্ম": 1479,
      "▁দেয়": 1480,
      "▁কেন্দ্র": 1481,
      "লাই": 1482,
      "▁পো": 1483,
      "লায়": 1484,
      "▁না,": 1485,
      "▁নির্ম": 1486,
      "▁চেয়ারম্যান": 1487,
      "▁একই": 1488,
      "স্প": 1489,
      "েত্রে": 1490,
      "ী।": 1491,
      "শ্য": 1492,
      "বেন।": 1493,
      "মাণ": 1494,
      "▁আছে": 1495,
      ")।": 1496,
      "িয়ার": 1497,
      "▁দেন।": 1498,
      "▁মাহ": 1499,
      "াপা": 1500,
      "্টি": 1501,
      "▁সরকারি": 1502,
      "ঠন": 1503,
      "▁স্থানীয়": 1504,
      "শন": 1505,
      "▁বাজার": 1506,
      "▁ছেলে": 1507,
      "▁ভাই": 1508,
      "্যার": 1509,
      "▁রয়েছে।": 1510,
      "▁আলম": 1511,
      "সর": 1512,
      "ীত": 1513,
      "▁এটা": 1514,
      "▁১২": 1515,
      "বেক": 1516,
      "্মদ": 1517,
      "্যাস": 1518,
      "াহী": 1519,
      "সু": 1520,
      "ক্স": 1521,
      "জনের": 1522,
      "▁বিদ": 1523,
      "গা": 1524,
      "দর্শ": 1525,
      "সার": 1526,
      "▁১১": 1527,
      "▁গোল": 1528,
      "▁ডি": 1529,
      "▁দেশে": 1530,
      "▁সামনে": 1531,
      "▁ক্ষেত্রে": 1532,
      "▁করেছে": 1533,
      "▁নিশ্": 1534,
      "▁ব্যক্তি": 1535,
      "▁আবদুল": 1536,
      "▁এবার": 1537,
      "▁সুযোগ": 1538,
      "▁পথ": 1539,
      "▁ব্যাপ": 1540,
      "েম্বর": 1541,
      "▁স্বা": 1542,
      "▁শেখ": 1543,
      "▁প্রে": 1544,
      "স্ব": 1545,
      "▁প্রস্ত": 1546,
      "লি": 1547,
      "▁শতাংশ": 1548,
      "▁মুখ": 1549,
      "শা": 1550,
      "▁মানুষের": 1551,
      "পত্র": 1552,
      "▁সর্ব": 1553,
      "িতি": 1554,
      "▁গ্রামের": 1555,
      "▁ব্র": 1556,
      "▁সাত": 1557,
      "▁শুধু": 1558,
      "সূ": 1559,
      "াগ": 1560,
      "ায়,": 1561,
      "▁গুরু": 1562,
      "▁করেছে।": 1563,
      "▁ভূ": 1564,
      "দে": 1565,
      "কো": 1566,
      "্ঞ": 1567,
      "▁নিতে": 1568,
      "▁এরপর": 1569,
      "ী,": 1570,
      "▁বিএনপির": 1571,
      "ঙ্গল": 1572,
      "জ্জ": 1573,
      "োয়া": 1574,
      "▁বক্তব্য": 1575,
      "▁শিক্ষক": 1576,
      "িনা": 1577,
      "▁নিজের": 1578,
      "▁ব্যবহার": 1579,
      "▁দেন": 1580,
      "▁সরকারের": 1581,
      "▁শিল্প": 1582,
      "ছিলেন।": 1583,
      "াইন": 1584,
      "▁গ্রেপ্তার": 1585,
      "▁মুক্তি": 1586,
      "▁বের": 1587,
      "খা": 1588,
      "▁রাতে": 1589,
      "ধীন": 1590,
      "▁কাল": 1591,
      "▁উদ্ধ": 1592,
      "▁হক": 1593,
      "▁পান": 1594,
      "▁থানার": 1595,
      "যুক্ত": 1596,
      "ায়ক": 1597,
      "▁বিষয়টি": 1598,
      "▁সাবেক": 1599,
      "▁চা": 1600,
      "োপ": 1601,
      "▁সিদ্ধ": 1602,
      "▁নয়।": 1603,
      "▁ঘটনায়": 1604,
      "তায়": 1605,
      "▁নেত": 1606,
      "াইল": 1607,
      "▁কু": 1608,
      "▁মৃত": 1609,
      "ফল": 1610,
      "িন্দ": 1611,
      "▁রাত": 1612,
      "▁পারে": 1613,
      "গুলোর": 1614,
      "▁বয়": 1615,
      "▁কমিশ": 1616,
      "▁আত": 1617,
      "▁পরিষ": 1618,
      "হাম্মদ": 1619,
      "▁পি": 1620,
      "▁চেষ্টা": 1621,
      "টু": 1622,
      "তম": 1623,
      "▁সির": 1624,
      "▁নম": 1625,
      "দিকে": 1626,
      "▁ছয়": 1627,
      "▁ছিল।": 1628,
      "▁খা": 1629,
      "▁প্রশাস": 1630,
      "▁বৃহ": 1631,
      "▁পাক": 1632,
      "▁স্প": 1633,
      "▁রেখে": 1634,
      "▁দায়িত্ব": 1635,
      "▁স্ম": 1636,
      "▁সবাই": 1637,
      "▁হাতে": 1638,
      "▁হয়নি।": 1639,
      "▁কার্য": 1640,
      "▁বাড়ি": 1641,
      "ক্ষি": 1642,
      "টিতে": 1643,
      "ীতি": 1644,
      "▁ক্রিকে": 1645,
      "▁কার্যাল": 1646,
      "▁উদ্য": 1647,
      "▁সম্মেল": 1648,
      "▁লক্ষ": 1649,
      "▁সিদ্ধান্ত": 1650,
      "▁বাই": 1651,
      "▁ছোট": 1652,
      "▁গেল": 1653,
      "▁রি": 1654,
      "▁তাল": 1655,
      "▁পুরো": 1656,
      "▁যেতে": 1657,
      "নির": 1658,
      "▁ভারত": 1659,
      "ছি": 1660,
      "টাই": 1661,
      "▁থাকা": 1662,
      "▁দাঁ": 1663,
      "▁বহ": 1664,
      "াকি": 1665,
      "্বে": 1666,
      "▁জায়": 1667,
      "▁বিকে": 1668,
      "▁১৫": 1669,
      "মুখ": 1670,
      "▁হাত": 1671,
      "েনে": 1672,
      "▁মনো": 1673,
      "▁ঘোষণা": 1674,
      "▁পারেন": 1675,
      "▁দেখে": 1676,
      "এম": 1677,
      "খ্যা": 1678,
      "খান": 1679,
      "▁প্রশ্ন": 1680,
      "ীকে": 1681,
      "..": 1682,
      "▁আসাম": 1683,
      "▁ব্যবস্থা": 1684,
      "▁এটি": 1685,
      "▁তদন্ত": 1686,
      "▁খান": 1687,
      "▁এখনো": 1688,
      "▁রাষ্ট্র": 1689,
      "▁তিনি।": 1690,
      "▁চি": 1691,
      "য়নের": 1692,
      "▁ভোট": 1693,
      "পূর্ণ": 1694,
      "▁কর্ত": 1695,
      "াণ": 1696,
      "▁ব্যক্ত": 1697,
      "▁উত্তর": 1698,
      "▁বর্ত": 1699,
      "িষ্ট": 1700,
      "েরে": 1701,
      "▁আন্ত": 1702,
      "▁নিরাপ": 1703,
      "▁লাগ": 1704,
      "▁পক্ষ": 1705,
      "▁সাংস": 1706,
      "▁বিশ্ববিদ্যালয়ের": 1707,
      "▁বিভাগের": 1708,
      "▁রান": 1709,
      "▁পুলিশের": 1710,
      "▁রোব": 1711,
      "▁মেয়ে": 1712,
      "া,": 1713,
      "▁মার্": 1714,
      "-১": 1715,
      "▁রু": 1716,
      "▁সংবাদ": 1717,
      "▁পাকিস্ত": 1718,
      "▁আহমে": 1719,
      "▁মঙ্গল": 1720,
      "▁নানা": 1721,
      "▁২০০": 1722,
      "▁ইতি": 1723,
      "▁উদ্ধার": 1724,
      "▁কাম": 1725,
      "▁এলাকার": 1726,
      "▁পরিবেশ": 1727,
      "ওয়ায়": 1728,
      "স্পতি": 1729,
      "▁ঘটে": 1730,
      "▁সাল": 1731,
      "▁ব্যবস": 1732,
      "▁দর": 1733,
      "▁উঠে": 1734,
      "্যাক": 1735,
      "প্রাপ্ত": 1736,
      "▁স্ত": 1737,
      "▁শেষে": 1738,
      "য়ারি": 1739,
      "▁সোম": 1740,
      "চিব": 1741,
      "িরা": 1742,
      "▁খবর": 1743,
      "পুরে": 1744,
      "▁নামের": 1745,
      "▁গুল": 1746,
      "োগে": 1747,
      "▁ফুট": 1748,
      "▁দশ": 1749,
      "েশন": 1750,
      "▁প্রার্থী": 1751,
      "▁যেন": 1752,
      "▁পরিচালক": 1753,
      "িতীয়": 1754,
      "চি": 1755,
      "স্কার": 1756,
      "▁বৃহস্পতি": 1757,
      "চেয়ে": 1758,
      "▁সাড়ে": 1759,
      "্লাহ": 1760,
      "্ভব": 1761,
      "▁কৃ": 1762,
      "▁যায়,": 1763,
      "▁যান": 1764,
      "▁বিজ্ঞ": 1765,
      "▁যাত্র": 1766,
      "দ্র": 1767,
      "াক্ষ": 1768,
      "▁আগামী": 1769,
      "োঁ": 1770,
      "▁টে": 1771,
      "▁the": 1772,
      "▁শিক্ষার্থ": 1773,
      "▁দী": 1774,
      "▁নিশ্চিত": 1775,
      "▁হওয়া": 1776,
      "দ্দ": 1777,
      "ম্প": 1778,
      "▁মোট": 1779,
      "িত্ত": 1780,
      "▁একা": 1781,
      "▁নিহত": 1782,
      "ুগ": 1783,
      "▁খে": 1784,
      "▁প্রতিষ্ঠান": 1785,
      "▁আলী": 1786,
      "▁বৃহস্পতিবার": 1787,
      "▁তর": 1788,
      "কদের": 1789,
      "িয়ান": 1790,
      "াতিক": 1791,
      "ভি": 1792,
      "▁সন্ধ": 1793,
      "ালি": 1794,
      "▁সবচেয়ে": 1795,
      "ফিক": 1796,
      "▁রোববার": 1797,
      "ক্ষিণ": 1798,
      "রুল": 1799,
      "▁গেছে,": 1800,
      "▁বুধ": 1801,
      "▁হাসপাতালে": 1802,
      "▁এখানে": 1803,
      "▁মাত্র": 1804,
      "▁উদ্দিন": 1805,
      "▁মোহাম্মদ": 1806,
      "িত্র": 1807,
      "বাদিক": 1808,
      "য়োজ": 1809,
      "▁সোমবার": 1810,
      "▁নম্বর": 1811,
      "▁সদর": 1812,
      "রেক": 1813,
      "াৎ": 1814,
      "▁যখন": 1815,
      "ক্ষণ": 1816,
      "▁সেটা": 1817,
      "▁কমিটির": 1818,
      "▁ভে": 1819,
      "▁রাজনৈতিক": 1820,
      "▁ব্যাপারে": 1821,
      "▁আয়োজন": 1822,
      "er": 1823,
      "▁চো": 1824,
      "▁দ্বিতীয়": 1825,
      "▁কল": 1826,
      "▁শা": 1827,
      "নিবার": 1828,
      "েলায়": 1829,
      "্যাম্প": 1830,
      "বায়": 1831,
      "রস": 1832,
      "▁মঙ্গলবার": 1833,
      "▁নিজে": 1834,
      "ন্ত্রণাল": 1835,
      "▁বুধবার": 1836,
      "▁যাওয়ার": 1837,
      "জার": 1838,
      "▁বই": 1839,
      "▁তাহ": 1840,
      "▁জাহ": 1841,
      "▁নারী": 1842,
      "▁নেই": 1843,
      "▁দাম": 1844,
      "▁আত্ম": 1845,
      "▁আহত": 1846,
      "▁ভারতের": 1847,
      "▁গুরুত্ব": 1848,
      "▁অবশ্য": 1849,
      "ৃষ্টি": 1850,
      "বিষ": 1851,
      "▁বিদ্যাল": 1852,
      "▁ভব": 1853,
      "▁গান": 1854,
      "▁উপস্থিত": 1855,
      "▁এত": 1856,
      "▁সমা": 1857,
      "চ্ছে": 1858,
      "▁নির্ব": 1859,
      "র্জাতিক": 1860,
      "▁পরিস": 1861,
      "▁মন্ত্রণাল": 1862,
      "এই": 1863,
      "▁ছিলেন।": 1864,
      "ালী": 1865,
      "পে": 1866,
      "জীব": 1867,
      "পোর": 1868,
      "▁অনুষ্ঠানে": 1869,
      "রাজ": 1870,
      "▁প্রধানমন্ত্রী": 1871,
      "▁নাট": 1872,
      "▁ব্যাংক": 1873,
      "টায়": 1874,
      "তেই": 1875,
      "▁আহমেদ": 1876,
      "▁কুম": 1877,
      "▁সাংবাদিক": 1878,
      "▁কাছ": 1879,
      "মের": 1880,
      "▁সড়ক": 1881,
      "র্ঘ": 1882,
      "▁উচ্চ": 1883,
      "▁শর": 1884,
      "▁উইকে": 1885,
      "▁গ্রহ": 1886,
      "াস্থ্য": 1887,
      "কেরা": 1888,
      "▁শনিবার": 1889,
      "▁জয়": 1890,
      "চিত্র": 1891,
      "বের": 1892,
      "▁ঈ": 1893,
      "▁বলেছেন,": 1894,
      "শীল": 1895,
      "াযোগ": 1896,
      "▁জা": 1897,
      "▁ক্ষম": 1898,
      "▁মৌ": 1899,
      "▁হয়েছে,": 1900,
      "▁ফলে": 1901,
      "▁ফের": 1902,
      "চে": 1903,
      "োজ": 1904,
      "▁শুক্র": 1905,
      "রত": 1906,
      "াতা": 1907,
      "ফর": 1908,
      "▁আদালত": 1909,
      "▁(২": 1910,
      "▁আরেক": 1911,
      "▁সম্ভব": 1912,
      "টিং": 1913,
      "▁বাবা": 1914,
      "▁পানি": 1915,
      "▁সকালে": 1916,
      "▁আন্তর্জাতিক": 1917,
      "্রতি": 1918,
      "▁জানতে": 1919,
      "▁এগ": 1920,
      "্যাট": 1921,
      "আর": 1922,
      "▁প্রয়োজন": 1923,
      "▁দিল": 1924,
      "▁ভাষ": 1925,
      "▁হলেও": 1926,
      "যায়ী": 1927,
      "▁আন্দ": 1928,
      "▁রাজধান": 1929,
      "▁অতি": 1930,
      "▁অনুষ্ঠিত": 1931,
      "▁নির্দেশ": 1932,
      "▁প্রকল্প": 1933,
      "চয়": 1934,
      "পুরের": 1935,
      "▁সুন": 1936,
      "র্কে": 1937,
      "▁নির্বাচনে": 1938,
      "▁অন্ত": 1939,
      "▁বলল": 1940,
      "স্ত্র": 1941,
      "▁যাবে": 1942,
      "ুই": 1943,
      "ড়াই": 1944,
      "re": 1945,
      "▁কৃষ": 1946,
      "▁ক্লা": 1947,
      "▁নেওয়ার": 1948,
      "▁দক্ষিণ": 1949,
      "য়র": 1950,
      "▁ওয়": 1951,
      "▁সেন": 1952,
      "▁বাহ": 1953,
      "বহ": 1954,
      "থায়": 1955,
      "ুরি": 1956,
      "▁তুল": 1957,
      "▁স্কুল": 1958,
      "ডে": 1959,
      "▁আলোচনা": 1960,
      "র্তি": 1961,
      "▁কর্তৃ": 1962,
      "ন্য": 1963,
      "▁সূত্র": 1964,
      "▁শুক্রবার": 1965,
      "▁কত": 1966,
      "ত্রে": 1967,
      "মো": 1968,
      "-২": 1969,
      "ন,": 1970,
      "▁s": 1971,
      "কাপ": 1972,
      "াপাশি": 1973,
      "ফা": 1974,
      "স্যা": 1975,
      "▁বস": 1976,
      "▁নিরাপত্ত": 1977,
      "▁এস": 1978,
      "▁নামে": 1979,
      "ূপ": 1980,
      "▁হত্যা": 1981,
      "স্থাপ": 1982,
      "▁পাশাপাশি": 1983,
      "▁মেড": 1984,
      "in": 1985,
      "▁অনুযায়ী": 1986,
      "্লেখ": 1987,
      "ও।": 1988,
      "▁শ্রমিক": 1989,
      "কে।": 1990,
      "▁দিনের": 1991,
      "▁ওয়ার": 1992,
      "▁কর্মসূ": 1993,
      "িজ্ঞ": 1994,
      "ংস": 1995,
      "▁মালিক": 1996,
      "▁বাইরে": 1997,
      "▁লাশ": 1998,
      "▁বাঁ": 1999,
      "▁বেলা": 2000,
      "▁নিউ": 2001,
      "▁ভো": 2002,
      "▁ভাগ": 2003,
      "▁যান।": 2004,
      "াঙ্গ": 2005,
      "াম।": 2006,
      "▁শ্রে": 2007,
      "▁ইউনিয়নের": 2008,
      "ইউ": 2009,
      "▁মাঝ": 2010,
      "▁ভি": 2011,
      "াজে": 2012,
      "সিড": 2013,
      "▁অভিন": 2014,
      "▁৩০": 2015,
      "▁আন্দোল": 2016,
      "হাস": 2017,
      "on": 2018,
      "▁চর": 2019,
      "ৌশ": 2020,
      "থমিক": 2021,
      "▁বয়স": 2022,
      "▁আহ্ব": 2023,
      "▁থেকেই": 2024,
      "▁উঠ": 2025,
      "▁সমর্থ": 2026,
      "বান": 2027,
      "▁w": 2028,
      "▁রাস্ত": 2029,
      "▁মিনি": 2030,
      "▁সমস্যা": 2031,
      "উল": 2032,
      "▁এলাকা": 2033,
      "লেই": 2034,
      "শে": 2035,
      "শ্ব": 2036,
      "ক্রম": 2037,
      "▁জে": 2038,
      "জ্জাম": 2039,
      "সক": 2040,
      "িকল্প": 2041,
      "▁চলা": 2042,
      "▁সাই": 2043,
      "ধিক": 2044,
      "ারি": 2045,
      "▁শো": 2046,
      "রাধ": 2047,
      "টি।": 2048,
      "▁স্বাস্থ্য": 2049,
      "াট": 2050,
      "▁কর্তৃপক্ষ": 2051,
      "▁সহযোগ": 2052,
      "্যায়": 2053,
      "চল": 2054,
      "-কর্ম": 2055,
      "▁মন": 2056,
      "▁আফ": 2057,
      "▁গবে": 2058,
      "▁যোগাযোগ": 2059,
      "▁রায়": 2060,
      "▁উল্লেখ": 2061,
      "▁ইং": 2062,
      "▁রকম": 2063,
      "▁দুর্": 2064,
      "▁মুক্তিয": 2065,
      "বাজার": 2066,
      "▁স্ত্র": 2067,
      "▁নির্বাহী": 2068,
      "▁চাক": 2069,
      "▁বেড়ে": 2070,
      "▁যুব": 2071,
      "বু": 2072,
      "),": 2073,
      "▁বলতে": 2074,
      "▁প্রাথমিক": 2075,
      "▁পরিবারের": 2076,
      "▁সত্য": 2077,
      "▁ফার": 2078,
      "▁দোক": 2079,
      "▁নেতৃত": 2080,
      "▁মেডিকে": 2081,
      "াতের": 2082,
      "নাম": 2083,
      "▁খেলা": 2084,
      "▁বাস্ত": 2085,
      "▁ভাব": 2086,
      "-এর": 2087,
      "▁কন": 2088,
      "টো": 2089,
      "▁ফিরে": 2090,
      "▁ডিস": 2091,
      "▁সংশ": 2092,
      "ঘট": 2093,
      "নীতি": 2094,
      "▁বেগ": 2095,
      "▁দীর্ঘ": 2096,
      "▁দুজন": 2097,
      "▁আটক": 2098,
      "দান": 2099,
      "ক্ষা": 2100,
      "▁রয়েছে": 2101,
      "▁বিশ্বকাপ": 2102,
      "▁ওঠ": 2103,
      "িনিধ": 2104,
      "ড়ার": 2105,
      "ক।": 2106,
      "▁বুঝ": 2107,
      "▁কখনো": 2108,
      "▁বৈঠ": 2109,
      "মাধ্য": 2110,
      "▁হাই": 2111,
      "▁বসে": 2112,
      "▁পরিবার": 2113,
      "▁কিং": 2114,
      "рз": 2115,
      "োধী": 2116,
      "▁ঘণ": 2117,
      "▁আবেদন": 2118,
      "ইন": 2119,
      "▁হন।": 2120,
      "্জ": 2121,
      "▁সন্ত": 2122,
      "▁সময়ে": 2123,
      "দল": 2124,
      "কেই": 2125,
      "▁নয়,": 2126,
      "▁অ্যান্ড": 2127,
      "▁নজ": 2128,
      "েন্স": 2129,
      "▁যাওয়া": 2130,
      "▁যুক্তরাষ্ট্র": 2131,
      "▁ধারণ": 2132,
      "এফ": 2133,
      "▁রাখা": 2134,
      "▁হত্য": 2135,
      "▁থানায়": 2136,
      "▁পরিবর্ত": 2137,
      "▁হামলা": 2138,
      "ট্র": 2139,
      "▁বন্ধু": 2140,
      "▁দূ": 2141,
      "▁একটু": 2142,
      "▁লেখ": 2143,
      "▁সপ্ত": 2144,
      "▁উন্নয়ন": 2145,
      "▁পরিস্থ": 2146,
      "▁শিক্ষা": 2147,
      "▁চাইলে": 2148,
      "▁সম্পর্কে": 2149,
      "▁সাহ": 2150,
      "▁মানব": 2151,
      "ীতে": 2152,
      "▁মামলার": 2153,
      "▁২৫": 2154,
      "▁জীবন": 2155,
      "▁এগিয়ে": 2156,
      "ল।": 2157,
      "াপন": 2158,
      "▁ভেত": 2159,
      "্যাত": 2160,
      "▁মেডিকেল": 2161,
      "ভে": 2162,
      "স্ট্র": 2163,
      "▁দেখতে": 2164,
      "ালা": 2165,
      "▁পরিষদের": 2166,
      "▁ঘটনার": 2167,
      "▁থাকতে": 2168,
      "িট": 2169,
      "ফো": 2170,
      "▁করেন,": 2171,
      "▁সংখ্যা": 2172,
      "▁সুপার": 2173,
      "▁১৪": 2174,
      "▁করলে": 2175,
      "াকায়": 2176,
      "▁আয়োজ": 2177,
      "▁কাপ": 2178,
      "▁জানায়,": 2179,
      "▁বিল": 2180,
      "▁শ্রেণ": 2181,
      "’।": 2182,
      "▁ভারপ্রাপ্ত": 2183,
      "▁বিভাগ": 2184,
      "▁চৌধুরী": 2185,
      "বাংলা": 2186,
      "▁ওয়ে": 2187,
      "▁আমাকে": 2188,
      "ত্তর": 2189,
      "▁ফর": 2190,
      "থি": 2191,
      "▁সী": 2192,
      "বাড়": 2193,
      "▁তাহলে": 2194,
      "▁মহাস": 2195,
      "▁আদালতে": 2196,
      "গু": 2197,
      "▁সহকারী": 2198,
      "কারি": 2199,
      "▁সবার": 2200,
      "্রুত": 2201,
      "্যায়ে": 2202,
      "▁অথ": 2203,
      "▁গর": 2204,
      "▁বাড়িতে": 2205,
      "▁গ্রহণ": 2206,
      "▁অফ": 2207,
      "সিডেন্ট": 2208,
      "▁পরিকল্প": 2209,
      "▁গড়ে": 2210,
      "▁মাঠে": 2211,
      "ীকার": 2212,
      "ানির": 2213,
      "▁লোকজন": 2214,
      "▁পক্ষে": 2215,
      "▁জানানো": 2216,
      "▁থাকে।": 2217,
      "▁আসামি": 2218,
      "িস্ট": 2219,
      "ল্যান্ড": 2220,
      "▁পাশে": 2221,
      "▁প্রচার": 2222,
      "িকভাবে": 2223,
      "লেন": 2224,
      "▁করছে।": 2225,
      "এক": 2226,
      "▁অবস্থায়": 2227,
      "▁সিটি": 2228,
      "▁যাঁ": 2229,
      "▁মারা": 2230,
      "পন": 2231,
      "▁ঢাকার": 2232,
      "▁বিদ্যু": 2233,
      "▁শুন": 2234,
      "▁জন্ম": 2235,
      "▁সৌ": 2236,
      "▁কেন্দ্রীয়": 2237,
      "▁টেস্ট": 2238,
      "▁ঐ": 2239,
      "▁ফাঁ": 2240,
      "▁কারও": 2241,
      "্ডার": 2242,
      "▁উদ্ব": 2243,
      "▁আগের": 2244,
      "ীদ": 2245,
      "ঘর": 2246,
      "▁১৮": 2247,
      "▁ফেলে": 2248,
      "েন্দ্র": 2249,
      "▁দ্রুত": 2250,
      "▁বিশ্ববিদ্যালয়": 2251,
      "▁পৃ": 2252,
      "▁নির্মাণ": 2253,
      "িক্ত": 2254,
      "▁কমিটি": 2255,
      "শেষ": 2256,
      "▁জি": 2257,
      "ব্দ": 2258,
      "▁শিক্ষার্থী": 2259,
      "তন": 2260,
      "▁শহরের": 2261,
      "▁জানু": 2262,
      "ফুল": 2263,
      "▁মার্ক": 2264,
      "▁কোন": 2265,
      "ুজ": 2266,
      "ুপ": 2267,
      "es": 2268,
      "▁প্রেসিডেন্ট": 2269,
      "ন্দ্র": 2270,
      "▁১৩": 2271,
      "▁খালে": 2272,
      "▁১৬": 2273,
      "▁জড়": 2274,
      "▁বাহিন": 2275,
      "▁ভাঙ": 2276,
      "উদ": 2277,
      "▁o": 2278,
      "▁বিদেশ": 2279,
      "▁প্রতিনিধ": 2280,
      "▁হয়তো": 2281,
      "▁আপনার": 2282,
      "▁পৌঁ": 2283,
      "▁মার্চ": 2284,
      "শার": 2285,
      "পরি": 2286,
      "▁একে": 2287,
      "▁ব্যবস্থাপ": 2288,
      "্টো": 2289,
      "্না": 2290,
      "য়েন": 2291,
      "▁গাড়ি": 2292,
      "ঙ্ক": 2293,
      "▁কোচ": 2294,
      "▁গেলে": 2295,
      "an": 2296,
      "▁ক্ষতি": 2297,
      "াসের": 2298,
      "বন্দ": 2299,
      "▁আশা": 2300,
      "▁সারা": 2301,
      "▁পরীক্ষা": 2302,
      "▁ডাক": 2303,
      "েশনের": 2304,
      "▁যাবে।": 2305,
      "▁বিত": 2306,
      "াজিক": 2307,
      "োভ": 2308,
      "▁পাঠানো": 2309,
      "▁ভর্তি": 2310,
      "▁বন": 2311,
      "at": 2312,
      "▁বিপক্ষে": 2313,
      "▁নিজেদের": 2314,
      "▁শি": 2315,
      "▁সূত্রে": 2316,
      "en": 2317,
      "্যাপক": 2318,
      "▁বাংলাদেশে": 2319,
      "▁লীগ": 2320,
      "▁হাসান": 2321,
      "নিক": 2322,
      "ুজ্জাম": 2323,
      "বী": 2324,
      "▁সমাজ": 2325,
      "লেট": 2326,
      "▁নিয়ম": 2327,
      "▁কাজে": 2328,
      "ঙ্গি": 2329,
      "▁অ্যা": 2330,
      "লীগের": 2331,
      "▁বিক্রি": 2332,
      "▁সেটি": 2333,
      "ডের": 2334,
      "▁মামলায়": 2335,
      "য়োগ": 2336,
      "ফে": 2337,
      "▁আয়": 2338,
      "▁সপ্তাহ": 2339,
      "▁সাক্ষ": 2340,
      "সল": 2341,
      "ুত": 2342,
      "▁বিনি": 2343,
      "ব।": 2344,
      "▁ইউনিয়ন": 2345,
      "মুদ": 2346,
      "▁মাসে": 2347,
      "শাক": 2348,
      "▁উপল": 2349,
      "ুকে": 2350,
      "গরিক": 2351,
      "▁নগ": 2352,
      "▁অপরাধ": 2353,
      "▁মিয়া": 2354,
      "▁c": 2355,
      "▁দিয়েছেন": 2356,
      "স্ট্রেল": 2357,
      "▁рж": 2358,
      "▁বিমান": 2359,
      "▁হয়েছিল": 2360,
      "▁কয়েকজন": 2361,
      "মানে": 2362,
      "▁তে": 2363,
      "▁f": 2364,
      "্রম": 2365,
      "▁সাংসদ": 2366,
      "▁ম্যাচে": 2367,
      "▁কঠ": 2368,
      "▁অবস্থান": 2369,
      "জয়": 2370,
      "▁তরুণ": 2371,
      "▁পালন": 2372,
      "▁জনগ": 2373,
      "পতি": 2374,
      "▁মর": 2375,
      "▁তাতে": 2376,
      "-প": 2377,
      "দুর": 2378,
      "্দর": 2379,
      "▁মির": 2380,
      "িসি": 2381,
      "▁নেতা-কর্ম": 2382,
      "িনার": 2383,
      "▁টাকার": 2384,
      "▁বঙ্গ": 2385,
      "▁থাকার": 2386,
      "▁করপোর": 2387,
      "▁৫০": 2388,
      "ুয়া": 2389,
      "▁দর্শ": 2390,
      "▁সৃষ্টি": 2391,
      "ূলক": 2392,
      "▁অধ্যাপক": 2393,
      "▁যেমন": 2394,
      "▁নাগরিক": 2395,
      "▁প্রার্থ": 2396,
      "▁কিংবা": 2397,
      "বর্তী": 2398,
      "িয়ন": 2399,
      "▁স্বাধীন": 2400,
      "ব্রু": 2401,
      "▁চাপ": 2402,
      "ক.": 2403,
      "▁প্রমুখ": 2404,
      "▁বিকেলে": 2405,
      "ীর্ষ": 2406,
      "▁অস্ত্র": 2407,
      "গতকাল": 2408,
      "▁রোগ": 2409,
      "▁নৌ": 2410,
      "▁করছেন।": 2411,
      "▁চুক্ত": 2412,
      "ুরে": 2413,
      "▁খুঁ": 2414,
      "▁বন্দ": 2415,
      "▁টাকা।": 2416,
      "▁দেয়।": 2417,
      "▁ছু": 2418,
      "▁বান": 2419,
      "োয়াড়": 2420,
      "▁ছেড়ে": 2421,
      "▁পণ": 2422,
      "▁আলা": 2423,
      "▁গুরুত্বপূর্ণ": 2424,
      "▁মত": 2425,
      "▁যৌ": 2426,
      "▁তিনটি": 2427,
      "▁শীর্ষ": 2428,
      "হি": 2429,
      "▁বাল": 2430,
      "▁আসা": 2431,
      "▁রাখতে": 2432,
      "সি)": 2433,
      "▁সৈ": 2434,
      "▁উদ্যোগ": 2435,
      "▁যত": 2436,
      "▁ভূমিক": 2437,
      "▁সংগঠন": 2438,
      "▁দুপুরে": 2439,
      "▁খ.": 2440,
      "▁বেগম": 2441,
      "▁ফেব্রু": 2442,
      "▁কোর": 2443,
      "▁গল্প": 2444,
      "তিরিক্ত": 2445,
      "▁দিনে": 2446,
      "▁মেয়র": 2447,
      "▁কাউন": 2448,
      "▁খেলোয়াড়": 2449,
      "ক্রান্ত": 2450,
      "▁পরিস্থিতি": 2451,
      "শ্চ": 2452,
      "িবির": 2453,
      "ঙে": 2454,
      "▁হয়েছেন।": 2455,
      "সঙ্গে": 2456,
      "▁কোম্প": 2457,
      "▁পেছ": 2458,
      "▁সম্মেলনে": 2459,
      "▁সভায়": 2460,
      "▁উইকেট": 2461,
      "য়ক": 2462,
      "▁ডে": 2463,
      "▁প্রস্তাব": 2464,
      "▁হে": 2465,
      "শের": 2466,
      "▁বদ": 2467,
      "▁চালিয়ে": 2468,
      "কেল": 2469,
      "▁বিএনপি": 2470,
      "ন্ত্রাস": 2471,
      "▁কয়েকটি": 2472,
      "▁ধর্ম": 2473,
      "▁প্রত্যা": 2474,
      "▁মাহমুদ": 2475,
      "সরকারি": 2476,
      "িশোর": 2477,
      "ূর্ব": 2478,
      "েলি": 2479,
      "িতির": 2480,
      "▁b": 2481,
      "▁ক্রিকেট": 2482,
      "▁জানান।": 2483,
      "্নের": 2484,
      "▁হারিয়ে": 2485,
      "▁মজ": 2486,
      "বিল": 2487,
      "ou": 2488,
      "▁উদ্দেশ": 2489,
      "গঞ্জের": 2490,
      "▁সাজ": 2491,
      "▁চলছে।": 2492,
      "টিয়ে": 2493,
      "▁প্রাণ": 2494,
      "▁অস্ট্রেল": 2495,
      "▁প্রতিবেদ": 2496,
      "▁ঘ.": 2497,
      "-৩": 2498,
      "▁জায়গ": 2499,
      "ছিলেন,": 2500,
      "্লিষ্ট": 2501,
      "▁মহান": 2502,
      "▁অভিযান": 2503,
      "▁লাল": 2504,
      "▁প্রতিযোগ": 2505,
      "ঠনের": 2506,
      "▁রাজধানীর": 2507,
      "ডার": 2508,
      "▁ফেল": 2509,
      "▁পুরস্কার": 2510,
      "ছি,": 2511,
      "▁অতিরিক্ত": 2512,
      "▁জিয়া": 2513,
      "▁নিয়ন্ত্রণ": 2514,
      "▁রং": 2515,
      "ৃত্ত": 2516,
      "রিক": 2517,
      "▁পোশাক": 2518,
      "▁গেছে": 2519,
      "▁চিকিৎসা": 2520,
      "েনার": 2521,
      "▁এল": 2522,
      "▁বোর্ড": 2523,
      "▁এন": 2524,
      "িয়াম": 2525,
      "▁ব্যাংকের": 2526,
      "িনের": 2527,
      "▁বাকি": 2528,
      "▁হবে,": 2529,
      "ন্তব্য": 2530,
      "েলের": 2531,
      "▁জম": 2532,
      "সিং": 2533,
      "▁অফিস": 2534,
      "▁আগস্ট": 2535,
      "কোনো": 2536,
      "▁জবা": 2537,
      "▁বর্তমান": 2538,
      "বাসী": 2539,
      "▁মার্কিন": 2540,
      "▁কীভাবে": 2541,
      "তু": 2542,
      "▁ব্যাট": 2543,
      "পাড়া": 2544,
      "সভ": 2545,
      "▁নিষ": 2546,
      "▁সুবি": 2547,
      "তর": 2548,
      "▁সহায়": 2549,
      "▁এপ্র": 2550,
      "সির": 2551,
      "▁পথে": 2552,
      "▁প্রতিবেদন": 2553,
      "ঙ্কা": 2554,
      "▁সামাজিক": 2555,
      "চক": 2556,
      "ুষ্ঠ": 2557,
      "▁জো": 2558,
      "▁মনোন": 2559,
      "ঞ্চল": 2560,
      "or": 2561,
      "▁উচিত": 2562,
      "▁নির্বাচনের": 2563,
      "▁পয়": 2564,
      "▁অক": 2565,
      "▁বছরে": 2566,
      "▁পুলিশ।": 2567,
      "সাই": 2568,
      "মাত্র": 2569,
      "ডিও": 2570,
      "াসে": 2571,
      "▁পুন": 2572,
      "▁হন": 2573,
      "গুলোতে": 2574,
      "▁ওর": 2575,
      "বো": 2576,
      "্রাম্প": 2577,
      "▁সংস্থা": 2578,
      "ৃতিক": 2579,
      "ম্ব": 2580,
      "▁লক্ষ্য": 2581,
      "▁বাজারে": 2582,
      "মরা": 2583,
      "▁দিয়েছেন।": 2584,
      "▁আইনজীব": 2585,
      "▁কব": 2586,
      "শিল্প": 2587,
      "▁কমে": 2588,
      "▁আবুল": 2589,
      "▁বোঝ": 2590,
      "প্রিয়": 2591,
      "▁ভেঙে": 2592,
      "▁বিদ্যুৎ": 2593,
      "▁সুর": 2594,
      "▁হলেন": 2595,
      "▁আহম": 2596,
      "▁ঋ": 2597,
      "ক,": 2598,
      "▁সন্ত্রাস": 2599,
      "▁পারেন।": 2600,
      "সাম": 2601,
      "▁উপলক্ষে": 2602,
      "▁স্বপ": 2603,
      "▁বিশ্বাস": 2604,
      "োর্ট": 2605,
      "ণে": 2606,
      "▁ছবির": 2607,
      "▁পৃথ": 2608,
      "েহ": 2609,
      "▁মুহ": 2610,
      "▁অর": 2611,
      "েনের": 2612,
      "▁দৃ": 2613,
      "▁করছেন": 2614,
      "▁মাদ": 2615,
      "ঠো": 2616,
      "▁করত": 2617,
      "▁শান্ত": 2618,
      "▁দূর": 2619,
      "ভূ": 2620,
      "▁জার": 2621,
      "ূর্ত": 2622,
      "ুস": 2623,
      "▁বাদ": 2624,
      "▁১৭": 2625,
      "▁বললেন,": 2626,
      "উট": 2627,
      "▁করছে": 2628,
      "ুন।": 2629,
      "▁হতো": 2630,
      "▁ওয়া": 2631,
      "▁নভ": 2632,
      "▁তাকে": 2633,
      "ৃহ": 2634,
      "ব্র": 2635,
      "▁খর": 2636,
      "মিটার": 2637,
      "য়দ": 2638,
      "?ক.": 2639,
      "াসন": 2640,
      "▁উদ্বোধ": 2641,
      "পথ": 2642,
      "▁প্রভাব": 2643,
      "▁হওয়ায়": 2644,
      "োস": 2645,
      "্ভাব": 2646,
      "▁নিয়োগ": 2647,
      "▁ফেসব": 2648,
      "বাংলাদেশ": 2649,
      "▁মনোনয়ন": 2650,
      "▁সর্বো": 2651,
      "ুলের": 2652,
      "▁জড়িত": 2653,
      "▁দাঁড়িয়ে": 2654,
      "▁দুর্ঘট": 2655,
      "ফোন": 2656,
      "▁আবু": 2657,
      "াজী": 2658,
      "▁জমা": 2659,
      "দ্ব": 2660,
      "▁লাই": 2661,
      "▁পদে": 2662,
      "▁দার": 2663,
      "▁সভাপতিত্ব": 2664,
      "▁চাঁ": 2665,
      "াকিব": 2666,
      "▁চলচ্": 2667,
      "▁না।’": 2668,
      "▁ফল": 2669,
      "▁নদী": 2670,
      "মর": 2671,
      "আজ": 2672,
      "▁গুলি": 2673,
      "োলার": 2674,
      "▁অভিনয়": 2675,
      "▁হুম": 2676,
      "▁পু": 2677,
      "াসহ": 2678,
      "▁উৎসব": 2679,
      "্সি": 2680,
      "▁দিব": 2681,
      "িয়ায়": 2682,
      "▁পাওয়ার": 2683,
      "▁প্রেম": 2684,
      "ন্ত্রীর": 2685,
      "▁বঙ্গবন্ধ": 2686,
      "▁দিচ্": 2687,
      "▁বাসিন্দ": 2688,
      "ক্ষেপ": 2689,
      "তন্ত্র": 2690,
      "▁স্ত্রী": 2691,
      "▁কুমার": 2692,
      "▁অন্যান": 2693,
      "▁মুঠো": 2694,
      "তুর": 2695,
      "্ডের": 2696,
      "ধর": 2697,
      "▁শিকার": 2698,
      "▁অনুষ্ঠান": 2699,
      "▁সম্পর্ক": 2700,
      "প্রে": 2701,
      "▁এপ্রিল": 2702,
      "▁ব্যক্তিদের": 2703,
      "▁জুলাই": 2704,
      "জান": 2705,
      "▁ট্রাম্প": 2706,
      "▁কলেজের": 2707,
      "বে,": 2708,
      "▁কর্মসূচি": 2709,
      "▁সিরিজ": 2710,
      "▁অপর": 2711,
      "▁মাই": 2712,
      "-আ": 2713,
      "▁ঢাকায়": 2714,
      "▁জায়গা": 2715,
      "প্ট": 2716,
      "ীক": 2717,
      "▁p": 2718,
      "▁মৃত্যু": 2719,
      "▁পরিমাণ": 2720,
      "▁যাচ্ছে": 2721,
      "▁লিখ": 2722,
      "▁সচিব": 2723,
      "▁ফ্র": 2724,
      "▁বর্তমানে": 2725,
      "▁মুখে": 2726,
      "▁আগেই": 2727,
      "▁চোখ": 2728,
      "▁ভিত্ত": 2729,
      "ৃতীয়": 2730,
      "▁বরা": 2731,
      "▁উৎপ": 2732,
      "▁জানুয়ারি": 2733,
      "▁হয়েছিল।": 2734,
      "▁m": 2735,
      "▁খু": 2736,
      "▁মাঠ": 2737,
      "▁থাকায়": 2738,
      "om": 2739,
      "▁নেমে": 2740,
      "▁প্রযুক্ত": 2741,
      "োঁজ": 2742,
      "▁আক": 2743,
      "▁ইন্টার": 2744,
      "▁দখ": 2745,
      "▁ব্যবসায়": 2746,
      "▁ফোন": 2747,
      "▁ইতিহাস": 2748,
      "▁পরিকল্পনা": 2749,
      "ুজ্জামান": 2750,
      "▁‘এ": 2751,
      "প্রতি": 2752,
      "ওয়ে": 2753,
      "▁শিক্ষার্থীদের": 2754,
      "িকায়": 2755,
      "গাঁ": 2756,
      "ধার": 2757,
      "▁ঘর": 2758,
      "▁অতিথি": 2759,
      "▁থাকলে": 2760,
      "সন": 2761,
      "ণিজ": 2762,
      "িয়াল": 2763,
      "▁নিরাপত্তা": 2764,
      "-ক": 2765,
      "▁সর্বোচ্চ": 2766,
      "▁জঙ্গি": 2767,
      "দ্ধা": 2768,
      "▁রেল": 2769,
      "▁ভুল": 2770,
      "স্ক": 2771,
      "▁ঘটে।": 2772,
      "▁নেয়": 2773,
      "▁সেল": 2774,
      "▁পড়া": 2775,
      "▁২৪": 2776,
      "▁দুর্ব": 2777,
      "ান্দ": 2778,
      "▁মাছ": 2779,
      "য়াল": 2780,
      "▁যুগ": 2781,
      "োহ": 2782,
      "▁ক্ল": 2783,
      "চের": 2784,
      "▁সমাবেশ": 2785,
      "উদ্দিন": 2786,
      "▁গাছ": 2787,
      "▁শির": 2788,
      "মিন": 2789,
      "▁দরকার": 2790,
      "ামা": 2791,
      "▁সংসদ": 2792,
      "▁পেতে": 2793,
      "▁ধার": 2794,
      "▁ইনি": 2795,
      "it": 2796,
      "▁যেকোনো": 2797,
      "▁মাসের": 2798,
      "ed": 2799,
      "▁জাতি": 2800,
      "▁রূপ": 2801,
      "▁নব": 2802,
      "ঠি": 2803,
      "▁(ও": 2804,
      "▁অধিন": 2805,
      "▁আপনি": 2806,
      "▁নির্ধ": 2807,
      "▁h": 2808,
      "▁ব্যাপার": 2809,
      "০১": 2810,
      "▁মন্তব্য": 2811,
      "ীরে": 2812,
      "▁২২": 2813,
      "—এ": 2814,
      "াসা": 2815,
      "▁দিক": 2816,
      "▁খালেদা": 2817,
      "হীন": 2818,
      "গান": 2819,
      "▁দিয়েছে।": 2820,
      "▁ইউর": 2821,
      "▁তৃতীয়": 2822,
      "▁আহ্বান": 2823,
      "▁ঘটন": 2824,
      "▁প্রকৌশ": 2825,
      "▁সম্প্রতি": 2826,
      "▁পরিচালনা": 2827,
      "যোগ্য": 2828,
      "▁সুন্দর": 2829,
      "▁প্রদর্শ": 2830,
      "▁চিত্র": 2831,
      "▁দশমিক": 2832,
      "▁অভিযোগে": 2833,
      "▁জরি": 2834,
      "ন্দ্ব": 2835,
      "▁সেন্ট": 2836,
      "▁কাউন্স": 2837,
      "ing": 2838,
      "▁প্রতিবাদ": 2839,
      "▁অবস্থা": 2840,
      "জের": 2841,
      "▁খাবার": 2842,
      "▁ডিসেম্বর": 2843,
      "...": 2844,
      "▁খেলে": 2845,
      "বছ": 2846,
      "িফ": 2847,
      "টন": 2848,
      "▁কিল": 2849,
      "▁উৎস": 2850,
      "▁২১": 2851,
      "ফিজ": 2852,
      "▁পূ": 2853,
      "▁শহীদ": 2854,
      "▁ধারা": 2855,
      "রাফ": 2856,
      "▁বাস্তবায়": 2857,
      "▁রাজশ": 2858,
      "ুতি": 2859,
      "▁সেরা": 2860,
      "▁অন্তত": 2861,
      "▁আছে,": 2862,
      "শু": 2863,
      "শিক্ষ": 2864,
      "্নে": 2865,
      "▁স্থানে": 2866,
      "▁পরিচয়": 2867,
      "▁অন্যান্য": 2868,
      "▁ভালোবাস": 2869,
      "▁টেলি": 2870,
      "▁খাদ": 2871,
      "্যব": 2872,
      "▁তারপর": 2873,
      "ar": 2874,
      "▁লেখা": 2875,
      "▁দুর্ন": 2876,
      "ায়ণ": 2877,
      "▁ফেব্রুয়ারি": 2878,
      "▁an": 2879,
      "▁উৎপাদ": 2880,
      "▁৪০": 2881,
      "▁হচ্ছে,": 2882,
      "▁কিশোর": 2883,
      "▁সংস্ক": 2884,
      "ঙ্খ": 2885,
      "▁পৌরস": 2886,
      "বিদ": 2887,
      "ীরা।": 2888,
      "বিষয়ক": 2889,
      "▁প্রত্য": 2890,
      "▁বাড়ির": 2891,
      "▁ওপ": 2892,
      "টিকে": 2893,
      "▁বেসরকারি": 2894,
      "▁কার্যালয়ে": 2895,
      "চুর": 2896,
      "▁আলোচ": 2897,
      "্দ্রে": 2898,
      "▁প্রতিটি": 2899,
      "▁(১": 2900,
      "▁(৩": 2901,
      "▁শত": 2902,
      "▁সেপ্ট": 2903,
      "▁হাজ": 2904,
      "▁আনন্দ": 2905,
      "▁চলচ্চিত্র": 2906,
      "মন্ত্রীর": 2907,
      "বিশ্ব": 2908,
      "▁যায়নি।": 2909,
      "▁সাহা": 2910,
      "ড়ির": 2911,
      "▁জল": 2912,
      "ড়াতে": 2913,
      "▁ইন্ড": 2914,
      "রা।": 2915,
      "▁সীমান": 2916,
      "▁কমপ": 2917,
      "▁ছাত্রলীগের": 2918,
      "▁হামলার": 2919,
      "িত্য": 2920,
      "▁ব্যবসায়ী": 2921,
      "▁to": 2922,
      "▁প্রতিদিন": 2923,
      "▁সংশ্লিষ্ট": 2924,
      "গো": 2925,
      "ষ্কার": 2926,
      "▁পত্র": 2927,
      "▁লিখে": 2928,
      "▁নগরের": 2929,
      "▁অপে": 2930,
      "▁পেশ": 2931,
      "▁পাস": 2932,
      "▁দলীয়": 2933,
      "▁কাঁ": 2934,
      "সিক": 2935,
      "▁পরিবর্তন": 2936,
      "▁গভ": 2937,
      "▁কাজের": 2938,
      "▁শুভ": 2939,
      "▁যাঁরা": 2940,
      "কল": 2941,
      "▁তু": 2942,
      "▁ক্যাম্প": 2943,
      "▁শার": 2944,
      "▁যাচ্ছে।": 2945,
      "▁আমের": 2946,
      "▁বিজ্ঞপ্ত": 2947,
      "োমিটার": 2948,
      "্রিক": 2949,
      "োষ": 2950,
      "▁ঘটনাস্থ": 2951,
      "▁বৃদ্ধ": 2952,
      "▁করবে।": 2953,
      "▁বিয়ে": 2954,
      "▁কাউন্সিল": 2955,
      "▁খুল": 2956,
      "োনাল": 2957,
      "▁গঠন": 2958,
      "ii": 2959,
      "▁in": 2960,
      "▁গ্রামে": 2961,
      "শিয়া": 2962,
      "▁শক্ত": 2963,
      "▁টেক": 2964,
      "▁এভাবে": 2965,
      "▁আনা": 2966,
      "িদপ্ত": 2967,
      "ঘাত": 2968,
      "▁প্রক্র": 2969,
      "ামর্শ": 2970,
      "▁পাই": 2971,
      "▁ধরা": 2972,
      "ময়": 2973,
      "▁(ওসি)": 2974,
      "▁অক্টো": 2975,
      "▁রাজনীতি": 2976,
      "▁দলে": 2977,
      "্যাশন": 2978,
      "▁যুক্তরাষ্ট্রের": 2979,
      "-ই": 2980,
      "▁জুন": 2981,
      "ল্ল": 2982,
      "▁পণ্য": 2983,
      "মত": 2984,
      "কট": 2985,
      "▁ঘণ্টা": 2986,
      "▁চালু": 2987,
      "▁ভারতীয়": 2988,
      "স্তা": 2989,
      "▁কার্যক্রম": 2990,
      "▁সংগ্রহ": 2991,
      "▁অধিদপ্ত": 2992,
      "▁অনুস": 2993,
      "▁জানান": 2994,
      "▁উপজেলায়": 2995,
      "al": 2996,
      "▁প্রকাশিত": 2997,
      "▁সৈয়দ": 2998,
      "খার": 2999,
      "াস্ট": 3000,
      "▁d": 3001,
      "▁of": 3002,
      "চালক": 3003,
      "▁বাংলাদেশি": 3004,
      "▁অল": 3005,
      "▁জায়গায়": 3006,
      "সুল": 3007,
      "▁বাতি": 3008,
      "▁দিয়েছে": 3009,
      "ছি।’": 3010,
      "জু": 3011,
      "▁খার": 3012,
      "▁কারণ,": 3013,
      "চা": 3014,
      "▁প্রশ্নের": 3015,
      "▁খো": 3016,
      "▁সমন": 3017,
      "▁কারাগ": 3018,
      "▁বলেন।": 3019,
      "ূত": 3020,
      "▁নাজ": 3021,
      "▁প্রমাণ": 3022,
      "▁স্মার": 3023,
      "জাত": 3024,
      "▁কঠিন": 3025,
      "স্থার": 3026,
      "ঠিক": 3027,
      "▁সময়ের": 3028,
      "▁দ্য": 3029,
      "▁আন্দোলন": 3030,
      "ভুক্ত": 3031,
      "ৃঙ্খ": 3032,
      "স্থান": 3033,
      "▁হাল": 3034,
      "্যাব": 3035,
      "▁লো": 3036,
      "-অ": 3037,
      "▁মন্ত্রণালয়ের": 3038,
      "▁অধিনায়ক": 3039,
      "ণিজ্য": 3040,
      "বিষ্য": 3041,
      "▁পরামর্শ": 3042,
      "েম্ব": 3043,
      "▁‘অ": 3044,
      "▁অধিকার": 3045,
      "▁হাঁ": 3046,
      "জাহ": 3047,
      "▁জমি": 3048,
      "▁সফ": 3049,
      "▁এনে": 3050,
      "▁পরিবহ": 3051,
      "▁নির্যাত": 3052,
      "গ্রে": 3053,
      "পাল": 3054,
      "▁ঝুঁ": 3055,
      "ৈধ": 3056,
      "শ্চিম": 3057,
      "▁জর": 3058,
      "▁সভা": 3059,
      "ড়ায়": 3060,
      "▁থাকবে": 3061,
      "▁হাসপাতালের": 3062,
      "▁গু": 3063,
      "▁যুদ্ধ": 3064,
      "ল,": 3065,
      "▁কিলোমিটার": 3066,
      "র্জন": 3067,
      "ক্তার": 3068,
      "as": 3069,
      "▁হলো।": 3070,
      "▁নাকি": 3071,
      "রির": 3072,
      "▁সড়কের": 3073,
      "▁জোট": 3074,
      "▁অন্যতম": 3075,
      "াবে": 3076,
      "▁চলাচল": 3077,
      "▁আগুন": 3078,
      "▁ট্রাক": 3079,
      "সান": 3080,
      "যাত্র": 3081,
      "▁শব্দ": 3082,
      "খালী": 3083,
      "▁নির্বাচিত": 3084,
      "▁সমন্ব": 3085,
      "-বা": 3086,
      "▁কমিশন": 3087,
      "▁বিনিয়োগ": 3088,
      "▁খাত": 3089,
      "▁নভেম্বর": 3090,
      "ারিত": 3091,
      "▁রক্ষ": 3092,
      "▁ওয়ান": 3093,
      "▁ব্যবহ": 3094,
      "্নি": 3095,
      "েড": 3096,
      "▁খরচ": 3097,
      "▁গ্রুপ": 3098,
      "▁মড": 3099,
      "▁আগ্রহ": 3100,
      "ায়ার": 3101,
      "েনি।": 3102,
      "▁মঞ্চ": 3103,
      "▁পারি": 3104,
      "▁সমিতির": 3105,
      "▁দোকান": 3106,
      "▁বিশ্বের": 3107,
      "▁পূর্ব": 3108,
      "ঘর্ষ": 3109,
      "উর": 3110,
      "▁নুর": 3111,
      "ভাবিক": 3112,
      "▁ভবিষ্য": 3113,
      "কালে": 3114,
      "সী": 3115,
      "▁সত": 3116,
      "▁ধারণা": 3117,
      "▁ময়": 3118,
      "▁পরিদর্শ": 3119,
      "▁জেনার": 3120,
      "জিব": 3121,
      "▁আছেন": 3122,
      "▁লাভ": 3123,
      "দীর": 3124,
      "▁আসতে": 3125,
      "্য,": 3126,
      "িতার": 3127,
      "▁চিন্ত": 3128,
      "▁বিবে": 3129,
      "▁এক্স": 3130,
      "▁মন্ত্রণালয়": 3131,
      "ানী": 3132,
      "▁ভেতরে": 3133,
      "ন্দেহ": 3134,
      "কর্ড": 3135,
      "▁জোর": 3136,
      "▁জামায়": 3137,
      "▁সহজ": 3138,
      "▁অ্যাস": 3139,
      "▁যার": 3140,
      "▁বেশি।": 3141,
      "▁কিছুটা": 3142,
      "▁সন্তান": 3143,
      "▁পেরে": 3144,
      "▁রাখার": 3145,
      "▁জ্ব": 3146,
      "▁স্বপ্ন": 3147,
      "▁নিয়মিত": 3148,
      "▁মহানগর": 3149,
      "▁জেলার": 3150,
      "সম্প": 3151,
      "ধ্যে": 3152,
      "▁মিশ": 3153,
      "▁অভিজ্ঞ": 3154,
      "▁অনি": 3155,
      "▁আদেশ": 3156,
      "▁পেছনে": 3157,
      "▁২৩": 3158,
      "▁কবির": 3159,
      "▁সম্প্র": 3160,
      "▁অবৈধ": 3161,
      "▁বর্ষ": 3162,
      "▁একাধিক": 3163,
      "▁ঘরে": 3164,
      "বাল": 3165,
      "ামেন্ট": 3166,
      "▁রেকর্ড": 3167,
      "▁নাস": 3168,
      "▁অথচ": 3169,
      "দন": 3170,
      "▁বিকেল": 3171,
      "▁জিজ্ঞ": 3172,
      "▁বাসায়": 3173,
      "্দের": 3174,
      "▁ভূমিকা": 3175,
      "▁চূ": 3176,
      "▁স্বীকার": 3177,
      "োনা": 3178,
      "is": 3179,
      "▁করবেন": 3180,
      "▁যাতে": 3181,
      "▁আইনজীবী": 3182,
      "▁প্রথ": 3183,
      "▁আদালতের": 3184,
      "▁মৃত্য": 3185,
      "▁চিকিৎস": 3186,
      "▁প্রশিক্ষ": 3187,
      "▁চিকিৎসক": 3188,
      "▁নাই": 3189,
      "▁রক্ত": 3190,
      "শ্র": 3191,
      "▁সাংবাদিকদের": 3192,
      "▁‘আমি": 3193,
      "হের": 3194,
      "▁খুবই": 3195,
      "▁গ্যাস": 3196,
      "▁আয়োজিত": 3197,
      "উত্তর": 3198,
      "বন্ধন": 3199,
      "▁পড়ে।": 3200,
      "িলা": 3201,
      "বাহিন": 3202,
      "ামের": 3203,
      "উন্ড": 3204,
      "▁ভবন": 3205,
      "হিঙ্গ": 3206,
      "▁যথ": 3207,
      "▁প্রতিষ্ঠানের": 3208,
      "ধিকার": 3209,
      "▁পার্ট": 3210,
      "▁করবে": 3211,
      "▁হিসাব": 3212,
      "▁সম্ভাব": 3213,
      "▁ব্রি": 3214,
      "▁বিব": 3215,
      "▁চুক্তি": 3216,
      "▁সন্ধ্যায়": 3217,
      "্যাম্পিয়ন": 3218,
      "ত।": 3219,
      "▁অগ্র": 3220,
      "▁সেনা": 3221,
      "▁মুক্ত": 3222,
      "▁বিজয়": 3223,
      "াম,": 3224,
      "▁যেখানে": 3225,
      "▁নেন।": 3226,
      "▁প্রস্তুতি": 3227,
      "▁নগর": 3228,
      "▁মাদক": 3229,
      "▁কামাল": 3230,
      "▁শাম": 3231,
      "▁চান": 3232,
      "▁ডলার": 3233,
      "▁শুনে": 3234,
      "বিরোধী": 3235,
      "ন্ড": 3236,
      "▁পরিষদ": 3237,
      "▁হত্যার": 3238,
      "▁পয়েন্ট": 3239,
      "▁পছ": 3240,
      "▁আলোর": 3241,
      "▁সহায়তা": 3242,
      "▁ধান": 3243,
      "উনি": 3244,
      "নোয়ার": 3245,
      "▁আসার": 3246,
      "▁ফাইন": 3247,
      "▁গৃহ": 3248,
      "▁আসে": 3249,
      "তবে": 3250,
      "▁বাধা": 3251,
      "▁ফুটবল": 3252,
      "▁আমিন": 3253,
      "ব্যব": 3254,
      "স্টি": 3255,
      "▁থাকলেও": 3256,
      "▁ম্য": 3257,
      "েষ্ট": 3258,
      "▁মুক্তিযো": 3259,
      "▁ফিল": 3260,
      "▁হয়েছেন": 3261,
      "▁জেনারেল": 3262,
      "ড়ান্ত": 3263,
      "▁কেটে": 3264,
      "খানা": 3265,
      "▁সংঘর্ষ": 3266,
      "গার": 3267,
      "▁সেপ্টেম্বর": 3268,
      "▁স্বামী": 3269,
      "▁ছাড়": 3270,
      "▁ফুল": 3271,
      "▁সেবা": 3272,
      "▁জিতে": 3273,
      "ান্স": 3274,
      "▁২৭": 3275,
      "▁ওভ": 3276,
      "▁করে,": 3277,
      "গ্রস্ত": 3278,
      "▁পৌঁছ": 3279,
      "গ্রহণ": 3280,
      "▁পশ্চিম": 3281,
      "▁ভোটার": 3282,
      "▁ঘুরে": 3283,
      "▁লেন": 3284,
      "▁বিক্ষ": 3285,
      "▁২৮": 3286,
      "্বাস": 3287,
      "▁অনেকে": 3288,
      "▁অনুর": 3289,
      "▁আর্থ": 3290,
      "le": 3291,
      "বরা": 3292,
      "িতায়": 3293,
      "▁সংগীত": 3294,
      "▁হবে।’": 3295,
      "জনকে": 3296,
      "▁সম্মেলন": 3297,
      "মাদের": 3298,
      "▁হলো,": 3299,
      "▁বিদ্যালয়ের": 3300,
      "▁চূড়ান্ত": 3301,
      "ভাগ": 3302,
      "প্রথম": 3303,
      "▁কার্যালয়": 3304,
      "▁ব্যবস্থাপনা": 3305,
      "▁পাহা": 3306,
      "▁ছড়িয়ে": 3307,
      "করণ": 3308,
      "।এ": 3309,
      "-ম": 3310,
      "▁বিদ্যালয়": 3311,
      "ধে": 3312,
      "পের": 3313,
      "িত্তিক": 3314,
      "▁খেলার": 3315,
      "্কৃতিক": 3316,
      "▁নো": 3317,
      "▁অনুমো": 3318,
      "▁২৬": 3319,
      "▁বাঙ": 3320,
      "▁নজরুল": 3321,
      "ফার": 3322,
      "চরণ": 3323,
      "▁সেখান": 3324,
      "▁মুসল": 3325,
      "মতো": 3326,
      "রোধ": 3327,
      "▁যাত্রী": 3328,
      "▁পর্যায়ে": 3329,
      "▁ভয়": 3330,
      "▁যেসব": 3331,
      "▁পাকিস্তানের": 3332,
      "▁নিজেকে": 3333,
      "▁খারাপ": 3334,
      "▁প্রতিনিধি": 3335,
      "ক্সবাজার": 3336,
      "▁রোহিঙ্গ": 3337,
      "▁মস": 3338,
      "▁কাউ": 3339,
      "▁রাজশাহী": 3340,
      "▁১০০": 3341,
      "▁ক্যা": 3342,
      "▁কথ": 3343,
      "ব,": 3344,
      "▁চ্যাম্পিয়ন": 3345,
      "▁বৃষ্টি": 3346,
      "▁বিন": 3347,
      "▁কমিশনার": 3348,
      "-সং": 3349,
      "ইয়": 3350,
      "ত্তি": 3351,
      "▁ড্র": 3352,
      "▁অঞ্চ": 3353,
      "▁বেশির": 3354,
      "▁তেমন": 3355,
      "▁বাজে": 3356,
      "হাট": 3357,
      "ৃঙ্খলা": 3358,
      "?’": 3359,
      "▁জনপ্রিয়": 3360,
      "▁মুহূর্ত": 3361,
      "য়েল": 3362,
      "▁উপা": 3363,
      "-স": 3364,
      "▁আনোয়ার": 3365,
      "▁লড়াই": 3366,
      "টিশ": 3367,
      "▁মাথায়": 3368,
      "্তা": 3369,
      "গ্ন": 3370,
      "▁মহাসড়": 3371,
      "▁দাবিতে": 3372,
      "পি)": 3373,
      "▁প্রথমে": 3374,
      "▁সুবিধা": 3375,
      "▁অক্টোবর": 3376,
      "াতার": 3377,
      "▁লাগে": 3378,
      "▁থাকবে।": 3379,
      "▁বিরোধ": 3380,
      "ড়ের": 3381,
      "ভিত্তিক": 3382,
      "মেন্ট": 3383,
      "▁ক্ষমতা": 3384,
      "▁আক্তার": 3385,
      "▁অধ্য": 3386,
      "▁সন্দেহ": 3387,
      "▁পৃথিব": 3388,
      "▁(ইউ": 3389,
      "▁১৯৯": 3390,
      "▁তালিকা": 3391,
      "বাড়ি": 3392,
      "▁যারা": 3393,
      "পু": 3394,
      "চ্ছা": 3395,
      "▁ঋণ": 3396,
      "’,": 3397,
      "▁অভিনে": 3398,
      "বধ": 3399,
      "▁ভাড়া": 3400,
      "▁সংগঠনের": 3401,
      "গ.": 3402,
      "াদার": 3403,
      "্দিষ্ট": 3404,
      "চেত": 3405,
      "▁রহমান,": 3406,
      "▁বাণিজ্য": 3407,
      "্টের": 3408,
      "শিয়ার": 3409,
      "▁কথা।": 3410,
      "▁হঠ": 3411,
      "▁চারটি": 3412,
      "▁কর্মকর্তারা": 3413,
      "স্টার": 3414,
      "ফের": 3415,
      "▁কাজী": 3416,
      "ণ্ডের": 3417,
      "▁নাটক": 3418,
      "▁প্রতিবেদনে": 3419,
      "▁কেবল": 3420,
      "▁পার্টির": 3421,
      "▁প্রতির": 3422,
      "▁শহর": 3423,
      "▁পাকিস্তান": 3424,
      "▁কাদের": 3425,
      "্কা": 3426,
      "▁বাক": 3427,
      "▁বঙ্গবন্ধু": 3428,
      "▁সম্মান": 3429,
      "▁মন্ত্রী": 3430,
      "৫০": 3431,
      "▁মাদ্র": 3432,
      "স্ফ": 3433,
      "▁রহমানের": 3434,
      "▁খেলতে": 3435,
      "▁জনের": 3436,
      "▁গণমাধ্য": 3437,
      "িবাস": 3438,
      "এল": 3439,
      "▁ব্যক্তির": 3440,
      "▁পরও": 3441,
      "হে": 3442,
      "▁অ্যাপ": 3443,
      "রক্ষ": 3444,
      "কিছু": 3445,
      "▁নূর": 3446,
      "িংস": 3447,
      "▁ভিডিও": 3448,
      "▁গাজী": 3449,
      "▁রাম": 3450,
      "▁ইক": 3451,
      "▁বাহিনীর": 3452,
      "▁সাংস্কৃতিক": 3453,
      "▁চোখে": 3454,
      "▁(বি": 3455,
      "▁সার্ভ": 3456,
      "▁ব্যবসা": 3457,
      "▁শহরে": 3458,
      "-ব": 3459,
      "▁দেড়": 3460,
      "▁মুন": 3461,
      "হ্ন": 3462,
      "চার্য": 3463,
      "▁ষ": 3464,
      "▁পায়": 3465,
      "рж╛": 3466,
      "ফোনে": 3467,
      "▁অনুষ্ঠানের": 3468,
      "▁সন্ধ্যা": 3469,
      "▁প্রযুক্তি": 3470,
      "▁করি।": 3471,
      "▁অ্যাল": 3472,
      "▁কং": 3473,
      "▁হোসেন,": 3474,
      "্ষিক": 3475,
      "▁আহমদ": 3476,
      "▁শেয়ার": 3477,
      "▁চাকরি": 3478,
      "▁নীতি": 3479,
      "▁ব্যর্থ": 3480,
      "▁মুক্তিযুদ্ধ": 3481,
      "▁মিলিয়ে": 3482,
      "ুদ্র": 3483,
      "▁এমনকি": 3484,
      "▁নেতৃত্বে": 3485,
      "▁জীবনের": 3486,
      "▁টাই": 3487,
      "▁খুঁজে": 3488,
      "▁গবেষণা": 3489,
      "্দা": 3490,
      "েন্ড": 3491,
      "কোর্ট": 3492,
      "▁পঞ্চ": 3493,
      "▁সমালো": 3494,
      "▁সাফল": 3495,
      "▁বিপর": 3496,
      "▁তারকা": 3497,
      "▁মডেল": 3498,
      "▁জানাল": 3499,
      "িত।": 3500,
      "▁আও": 3501,
      "▁পুরোনো": 3502,
      "▁অসু": 3503,
      "▁—": 3504,
      "▁কষ্ট": 3505,
      "োয়ার": 3506,
      "বণ": 3507,
      "ব্ব": 3508,
      "ছিল,": 3509,
      "পুলিশ": 3510,
      "্ষণ": 3511,
      "▁স্থাপ": 3512,
      "▁পরবর্তী": 3513,
      "▁যুগ্ম": 3514,
      "▁সাহায": 3515,
      "▁ইউরোপ": 3516,
      "ভিশ": 3517,
      "▁মানে": 3518,
      "▁সমাধান": 3519,
      "জেলা": 3520,
      "▁পুনর": 3521,
      "▁রানে": 3522,
      "ুরা": 3523,
      "▁দখল": 3524,
      "▁নেতারা": 3525,
      "▁তৎ": 3526,
      "▁হতা": 3527,
      "▁করিম": 3528,
      "▁সিরাজ": 3529,
      "▁ইসলাম,": 3530,
      "▁উদ্বোধন": 3531,
      "▁সদস্যরা": 3532,
      "▁বোল": 3533,
      "ফিকুল": 3534,
      "▁শাস্ত": 3535,
      "▁বিতরণ": 3536,
      "সংঘ": 3537,
      "ion": 3538,
      "ান্তর": 3539,
      "ণ্": 3540,
      "সম্যান": 3541,
      "▁ছবিতে": 3542,
      "▁ফরি": 3543,
      "বেন,": 3544,
      "▁হঠাৎ": 3545,
      "▁নর": 3546,
      "▁পূর্ণ": 3547,
      "▁লেগে": 3548,
      "▁জাপ": 3549,
      "▁বিস্ত": 3550,
      "▁ডিজ": 3551,
      "▁সীমান্ত": 3552,
      "▁মিনিটে": 3553,
      "▁দিলে": 3554,
      "্যাপী": 3555,
      "▁খাল": 3556,
      "▁কম্প": 3557,
      "▁পৌর": 3558,
      "▁মুর": 3559,
      "▁দূরে": 3560,
      "▁বৈঠক": 3561,
      "অন": 3562,
      "বুব": 3563,
      "▁ভিন্ন": 3564,
      "কালীন": 3565,
      "▁কার্যকর": 3566,
      "▁বার্স": 3567,
      "▁অনেকেই": 3568,
      "▁বয়সী": 3569,
      "▁এইচ": 3570,
      "▁দেখিয়ে": 3571,
      "▁সিন": 3572,
      "▁বাধ্য": 3573,
      "▁ইতিম": 3574,
      "▁বিদেশি": 3575,
      "▁ভিত্তিতে": 3576,
      "নি,": 3577,
      "▁সংস্কার": 3578,
      "▁গ.": 3579,
      "▁‘স": 3580,
      "▁নারায়ণ": 3581,
      "ৃদ্ধ": 3582,
      "▁ম্যাচের": 3583,
      "▁‘ক": 3584,
      "▁ইর": 3585,
      "▁ঈদের": 3586,
      "্প্র": 3587,
      "▁দিবস": 3588,
      "▁ইংল্যান্ড": 3589,
      "্যেষ্ঠ": 3590,
      "▁রপ্ত": 3591,
      "▁জাল": 3592,
      "▁রাস্তা": 3593,
      "চেতন": 3594,
      "▁হয়েছে।\n": 3595,
      "▁মের": 3596,
      "▁দৌ": 3597,
      "▁স্বাভাবিক": 3598,
      "ক্ষম": 3599,
      "▁অনুরোধ": 3600,
      "মতি": 3601,
      "▁মূল্য": 3602,
      "ুষ্ঠান": 3603,
      "▁সফল": 3604,
      "▁বিরোধী": 3605,
      "াসরি": 3606,
      "▁‘আমরা": 3607,
      "ো।": 3608,
      "▁কর্মসূচ": 3609,
      "▁আছেন।": 3610,
      "▁মিলনায়": 3611,
      "কারীদের": 3612,
      "খ্য": 3613,
      "▁ইংরে": 3614,
      "▁সরবরা": 3615,
      "▁স্মৃতি": 3616,
      "▁করপোরেশনের": 3617,
      "▁কংগ্রে": 3618,
      "▁কাঠ": 3619,
      "সভাপতি": 3620,
      "▁কক্সবাজার": 3621,
      "▁নিচে": 3622,
      "▁চট্টগ্রামের": 3623,
      "্লেক্স": 3624,
      "বাদের": 3625,
      "▁প্রয়োজনীয়": 3626,
      "▁সমস্য": 3627,
      "িপ": 3628,
      "াজের": 3629,
      "▁আসে।": 3630,
      "ক্য": 3631,
      "▁দারুণ": 3632,
      "▁আইনের": 3633,
      "▁সোহ": 3634,
      "চর": 3635,
      "▁দুঃ": 3636,
      "িলের": 3637,
      "▁দুর্নীতি": 3638,
      "পর্যায়ে": 3639,
      "ফি": 3640,
      "নাথ": 3641,
      "▁দপ্ত": 3642,
      "▁আমির": 3643,
      "স,": 3644,
      "▁সেতু": 3645,
      "▁শ্রীল": 3646,
      "ামার": 3647,
      "▁রানের": 3648,
      "▁পরিণ": 3649,
      "▁বর্ণ": 3650,
      "।আ": 3651,
      "▁আসলে": 3652,
      "▁গার": 3653,
      "▁চলতি": 3654,
      "▁সম্ভাবনা": 3655,
      "▁ক্রে": 3656,
      "ান্ড": 3657,
      "▁হাসপাতাল": 3658,
      "▁করায়": 3659,
      "নগর": 3660,
      "হর": 3661,
      "▁বিক্ষোভ": 3662,
      "▁হাইকোর্ট": 3663,
      "▁চাষ": 3664,
      "▁পালিয়ে": 3665,
      "▁and": 3666,
      "▁চী": 3667,
      "▁মিয়ান": 3668,
      "▁সমর্থন": 3669,
      "ডেম": 3670,
      "এনও": 3671,
      "▁পরিচিত": 3672,
      "▁অবরোধ": 3673,
      "▁আলাদা": 3674,
      "▁পদক্ষেপ": 3675,
      "▁দুপুর": 3676,
      "▁পাশের": 3677,
      "ীণ": 3678,
      "▁ওয়েব": 3679,
      "▁মোটরস": 3680,
      "▁T": 3681,
      "▁কোম্পানি": 3682,
      "▁জ্যেষ্ঠ": 3683,
      "দ্বন্দ্ব": 3684,
      "স্ম": 3685,
      "▁অনলাই": 3686,
      "▁লেনদ": 3687,
      "▁n": 3688,
      "▁অত": 3689,
      "▁দেশটির": 3690,
      "▁সিলেট": 3691,
      "▁মাঝে": 3692,
      "য়নে": 3693,
      "বাদী": 3694,
      "▁মেনে": 3695,
      "▁স্থায়ী": 3696,
      "▁উদ্যোগে": 3697,
      "▁নদীর": 3698,
      "▁বৈঠকে": 3699,
      "▁পররাষ্ট্র": 3700,
      "▁নির্বাচনী": 3701,
      "▁বিচারপতি": 3702,
      "▁পড়তে": 3703,
      "াক্ত": 3704,
      "তনে": 3705,
      "▁কান": 3706,
      "্‌": 3707,
      "▁করবেন।": 3708,
      "▁শিশুদের": 3709,
      "▁ছিল,": 3710,
      "▁সবাইকে": 3711,
      "▁তাম": 3712,
      "▁বুঝতে": 3713,
      "▁মিলে": 3714,
      "স্টিটি": 3715,
      "▁ব্যক্তিগত": 3716,
      "▁বলছেন,": 3717,
      "ি।\n": 3718,
      "িদুল": 3719,
      "ুরের": 3720,
      "▁হাজির": 3721,
      "▁কৃষি": 3722,
      "▁মোটরসাই": 3723,
      "▁কমান": 3724,
      "▁l": 3725,
      "▁অব্যা": 3726,
      "▁সিদ্দ": 3727,
      "ইল": 3728,
      "্ভর": 3729,
      "▁প্লা": 3730,
      "▁প্রশাসন": 3731,
      "টেড": 3732,
      "▁আবারও": 3733,
      "▁করেই": 3734,
      "াপ্রতি": 3735,
      "▁পক্ষের": 3736,
      "▁সভাপতিত্বে": 3737,
      "কেট": 3738,
      "-৩০": 3739,
      "▁প্রমুখ।": 3740,
      "তে,": 3741,
      "▁মোব": 3742,
      "▁২০১৪": 3743,
      "▁প্রধানমন্ত্রীর": 3744,
      "▁সহসভাপতি": 3745,
      "▁টানা": 3746,
      "▁প্রশাসক": 3747,
      "▁ব্যাটসম্যান": 3748,
      "▁অস্ব": 3749,
      "টুক": 3750,
      "▁আফ্র": 3751,
      "▁ব্যাপক": 3752,
      "▁সরে": 3753,
      "▁রশ": 3754,
      "▁টি-": 3755,
      "হল": 3756,
      "কেন্দ্র": 3757,
      "▁কার্যালয়ের": 3758,
      "দু": 3759,
      "▁ইসলামের": 3760,
      "▁পুরু": 3761,
      "কারে": 3762,
      "তাম": 3763,
      "▁করি": 3764,
      "টোর": 3765,
      "ান্ত্রিক": 3766,
      "▁চিঠি": 3767,
      "্রয়": 3768,
      "▁২৯": 3769,
      "▁সহযোগিতা": 3770,
      "▁তুমি": 3771,
      "▁সঠিক": 3772,
      "িসের": 3773,
      "জাম": 3774,
      "▁কোথা": 3775,
      "▁ঝুঁকি": 3776,
      "▁আবদুর": 3777,
      "▁চন্দ্র": 3778,
      "▁আধ": 3779,
      "▁আর্থিক": 3780,
      "▁মাহবুব": 3781,
      "▁আচরণ": 3782,
      "▁ইনস্টিটি": 3783,
      "ুখ": 3784,
      "▁গোয়েন": 3785,
      "উত্তর:": 3786,
      "▁আরেকটি": 3787,
      "▁সরাসরি": 3788,
      "▁হাসিনা": 3789,
      "▁পরীক্ষার": 3790,
      "গঠন": 3791,
      "▁কুমিল": 3792,
      "৫)": 3793,
      "▁হোসেনের": 3794,
      "▁মুখো": 3795,
      "▁ফুটব": 3796,
      "িদা": 3797,
      "চ্ছে।": 3798,
      "▁বিজে": 3799,
      "▁কমিশনের": 3800,
      "ুলত": 3801,
      "▁কর্মী": 3802,
      "▁কলক": 3803,
      "▁কারখান": 3804,
      "▁কেন্দ্রে": 3805,
      "াঙ্গীর": 3806,
      "ামত": 3807,
      "▁গভীর": 3808,
      "▁শ্রেণির": 3809,
      "▁বিজ্ঞান": 3810,
      "উপ": 3811,
      "িকশা": 3812,
      "▁করেছেন,": 3813,
      "▁অঙ্গ": 3814,
      "▁বলছে,": 3815,
      "▁ব্ল": 3816,
      "▁সিনে": 3817,
      "▁সৃ": 3818,
      "▁সর্বশেষ": 3819,
      "▁(৪": 3820,
      "il": 3821,
      "▁চলছে": 3822,
      "▁একবার": 3823,
      "▁মিনিট": 3824,
      "প্রধান": 3825,
      "▁দীর্ঘদিন": 3826,
      "▁কারাগারে": 3827,
      "▁আপনা": 3828,
      "ভাষ": 3829,
      "্ধ্ব": 3830,
      "▁প্রকল্পের": 3831,
      "▁জানিয়েছেন": 3832,
      "▁বাঁচ": 3833,
      "▁মিছিল": 3834,
      "ুরুর": 3835,
      "▁ঐতি": 3836,
      "▁পেয়েছেন": 3837,
      "বাগ": 3838,
      "▁শরীর": 3839,
      "▁গেছেন।": 3840,
      "▁হবে।\n": 3841,
      "াপ্রতিষ্ঠ": 3842,
      "▁দাঁড়": 3843,
      "▁ইয়া": 3844,
      "▁চৌধুরী,": 3845,
      "▁নিল": 3846,
      "▁‘ম": 3847,
      "ল্লা": 3848,
      "▁পরিশ": 3849,
      "▁কাউকে": 3850,
      "▁৩১": 3851,
      "▁মেয়া": 3852,
      "▁নিউজ": 3853,
      "▁সিং": 3854,
      "▁ক্যার": 3855,
      "▁জিত": 3856,
      "▁বলেই": 3857,
      "▁বেতন": 3858,
      "বরে": 3859,
      "ত,": 3860,
      "▁কমপ্লেক্স": 3861,
      "্যালে": 3862,
      "চ্ছেন": 3863,
      "▁খাদ্য": 3864,
      "িরে": 3865,
      "▁কাট": 3866,
      "▁নিউইয়": 3867,
      "িও": 3868,
      "াত্ম": 3869,
      "্টর": 3870,
      "▁নেতৃত্ব": 3871,
      "ূন্য": 3872,
      "▁বরং": 3873,
      "▁জাতিসংঘ": 3874,
      "▁আশপা": 3875,
      "ব্যাপী": 3876,
      "গাঁও": 3877,
      "▁দৈ": 3878,
      "▁প্রবেশ": 3879,
      "▁পুরুষ": 3880,
      "দায়": 3881,
      "▁জনগণের": 3882,
      "▁তারি": 3883,
      "▁বেরিয়ে": 3884,
      "▁কিছুই": 3885,
      "▁ফা": 3886,
      "▁অর্থনৈতিক": 3887,
      "▁সড়কে": 3888,
      "▁সিদ্দিক": 3889,
      "ুধ": 3890,
      "▁মুজিব": 3891,
      "্যাশনাল": 3892,
      "েজ": 3893,
      "▁কেমন": 3894,
      "▁নারীর": 3895,
      "▁১৯৭": 3896,
      "এদিকে": 3897,
      "▁অর্জন": 3898,
      "▁ক্লাব": 3899,
      "▁দেব": 3900,
      "▁রাস": 3901,
      "▁ভাষা": 3902,
      "▁বরাদ্দ": 3903,
      "▁নেন": 3904,
      "▁জবাবে": 3905,
      "▁এসেছে।": 3906,
      "▁পরের": 3907,
      "▁২০১৫": 3908,
      "▁হয়।\n": 3909,
      "-এ": 3910,
      "বুল": 3911,
      "▁উচ্চবিদ্যাল": 3912,
      "▁ব্যস্ত": 3913,
      "▁প্রসঙ্গে": 3914,
      "▁শিক্ষার্থীরা": 3915,
      "▁সাকিব": 3916,
      "рзЗ": 3917,
      "▁মাথা": 3918,
      "▁এবারের": 3919,
      "▁আবেদ": 3920,
      "বিধান": 3921,
      "▁টু": 3922,
      "▁গোলাম": 3923,
      "▁বিভাগে": 3924,
      "▁বাং": 3925,
      "্যানেল": 3926,
      "▁পরিবহন": 3927,
      "▁যন্ত্র": 3928,
      "ণা": 3929,
      "▁ঘুম": 3930,
      "▁প্রতিদ্বন্দ্ব": 3931,
      "▁বগু": 3932,
      "▁করল": 3933,
      "▁বাসিন্দা": 3934,
      "▁যৌথ": 3935,
      "-০": 3936,
      "িউটার": 3937,
      "▁বাতিল": 3938,
      "▁যানবাহ": 3939,
      "লিশ": 3940,
      "▁বেল": 3941,
      "▁পূরণ": 3942,
      "▁ব্যয়": 3943,
      "▁থানা": 3944,
      "▁সদস্যদের": 3945,
      "▁মায়ের": 3946,
      "▁জাহাঙ্গীর": 3947,
      "▁মহিলা": 3948,
      "ামে": 3949,
      "▁প্রশিক্ষণ": 3950,
      "▁৬০": 3951,
      "▁কিন": 3952,
      "▁পদ্ধ": 3953,
      "▁করেছি।": 3954,
      "▁তাঁরা।": 3955,
      "ঘা": 3956,
      "▁কবি": 3957,
      "য়ান": 3958,
      "▁পড়েছে।": 3959,
      "▁মনির": 3960,
      "▁বাবার": 3961,
      "▁জার্ম": 3962,
      "▁একসঙ্গে": 3963,
      "জল": 3964,
      "▁ছাড়াও": 3965,
      "▁ইত্যা": 3966,
      "▁প্রকৌশলী": 3967,
      "▁প্রিয়": 3968,
      "ছাত্র": 3969,
      "▁বাঁধ": 3970,
      "কু": 3971,
      "▁ভবনের": 3972,
      "▁is": 3973,
      "▁মধ্যেই": 3974,
      "সুম": 3975,
      "▁চিহ্ন": 3976,
      "▁দেখার": 3977,
      "▁তোমার": 3978,
      "▁স্মার্ট": 3979,
      "▁অবশ্যই": 3980,
      "▁ওরফে": 3981,
      "▁যুক্তরাজ": 3982,
      "স্ফোর": 3983,
      "মূল": 3984,
      "рж░": 3985,
      "ভাবেই": 3986,
      "▁চাঁদ": 3987,
      "গতি": 3988,
      "▁চাহ": 3989,
      "ীপ": 3990,
      "প্রশ": 3991,
      "▁চায়": 3992,
      "ত্রী": 3993,
      "▁উন": 3994,
      "কির": 3995,
      "▁গানের": 3996,
      "▁স্ন": 3997,
      "▁কাগ": 3998,
      "▁একপর্যায়ে": 3999,
      "▁পছন্দ": 4000,
      "▁মহাসচিব": 4001,
      "▁বহু": 4002,
      "▁লিমি": 4003,
      "▁হস্ত": 4004,
      "▁তোলা": 4005,
      "য়েন্টি": 4006,
      "▁ইতিমধ্যে": 4007,
      "লো": 4008,
      "বাচক": 4009,
      "▁বিধ": 4010,
      "▁সহিংস": 4011,
      "▁g": 4012,
      "▁মিলনায়তনে": 4013,
      "বদ্ধ": 4014,
      "▁শিল্পী": 4015,
      "▁অথবা": 4016,
      "ষুধ": 4017,
      "িকের": 4018,
      "▁পারে,": 4019,
      "▁শান্তি": 4020,
      "ছিলাম।": 4021,
      "▁একমাত্র": 4022,
      "▁হাউ": 4023,
      "▁ওয়ানডে": 4024,
      "▁থেকে।": 4025,
      "-চ": 4026,
      "গুলোকে": 4027,
      "▁রেজা": 4028,
      "▁আঁ": 4029,
      "▁আকাশ": 4030,
      "▁গতি": 4031,
      "এসই": 4032,
      "▁কাটা": 4033,
      "▁ইম": 4034,
      "▁বিশেষজ্ঞ": 4035,
      "▁অনুমোদন": 4036,
      "▁মাত": 4037,
      "ককে": 4038,
      "াকিম": 4039,
      "েস": 4040,
      "▁তিনজন": 4041,
      "▁নুরুল": 4042,
      "শোর": 4043,
      "▁কম্পিউটার": 4044,
      "▁ওয়ার্ড": 4045,
      "▁চিন্তা": 4046,
      "▁প্রক্রিয়া": 4047,
      "ছা": 4048,
      "আই)": 4049,
      "▁কোথায়": 4050,
      "▁কোথাও": 4051,
      "ic": 4052,
      "ঠিত": 4053,
      "▁২০১৩": 4054,
      "গির": 4055,
      "▁এসেছে": 4056,
      "র্শক": 4057,
      "মানের": 4058,
      "▁বলেন": 4059,
      "ভব": 4060,
      "▁আহ্বায়ক": 4061,
      "ৃতির": 4062,
      "▁ওষুধ": 4063,
      "▁ফরিদ": 4064,
      "▁সিলে": 4065,
      "▁প্রতিপক্ষ": 4066,
      "▁একাডেম": 4067,
      "▁ক্যাম": 4068,
      "▁সেক": 4069,
      "মনসিং": 4070,
      "সময়": 4071,
      "▁শাখার": 4072,
      "▁উৎপাদন": 4073,
      "▁সতর্ক": 4074,
      "▁হেল": 4075,
      "▁থাকেন।": 4076,
      "্টে": 4077,
      "▁আসনে": 4078,
      "ষ্টির": 4079,
      "▁পৌঁছে": 4080,
      "▁গ্রাহ": 4081,
      "▁গুণ": 4082,
      "▁কমিউনি": 4083,
      "শাল": 4084,
      "-৪": 4085,
      "তাই": 4086,
      "▁রক্ষা": 4087,
      "তুর্থ": 4088,
      "▁ক্ষতিগ্রস্ত": 4089,
      "টর": 4090,
      "▁মিজ": 4091,
      "▁কৌশ": 4092,
      "ছাই": 4093,
      "▁ফারুক": 4094,
      "▁মানুষকে": 4095,
      "▁বিস্ফোর": 4096,
      "াতায়": 4097,
      "▁নেতাদের": 4098,
      "▁খাতে": 4099,
      "গ্ধ": 4100,
      "▁মুঠোফোনে": 4101,
      "▁লিখিত": 4102,
      "▁অনুযায়ী,": 4103,
      "বাহী": 4104,
      "▁জিজ্ঞাসা": 4105,
      "▁সরবরাহ": 4106,
      "▁ভেবে": 4107,
      "▁ওয়েবসাই": 4108,
      "ভোগ": 4109,
      "ানার": 4110,
      "িল্যান্ড": 4111,
      "েনা": 4112,
      "ষণার": 4113,
      "▁সেঞ্চ": 4114,
      "্যাং": 4115,
      "টিক": 4116,
      "▁ফু": 4117,
      "▁উপদ": 4118,
      "োপা": 4119,
      "▁দুর্বৃত্ত": 4120,
      "▁বিশ্ববিদ্যালয়ে": 4121,
      "▁বিয়ের": 4122,
      "▁পের": 4123,
      "▁সংস্থার": 4124,
      "▁বদলে": 4125,
      "▁নক": 4126,
      "▁ব্যক্তিরা": 4127,
      "েধ": 4128,
      "▁স্বার্থ": 4129,
      "ent": 4130,
      "▁টুর": 4131,
      "▁বরিশ": 4132,
      "শৃঙ্খলা": 4133,
      "▁গাই": 4134,
      "▁পৌরসভার": 4135,
      "▁সাক্ষাৎ": 4136,
      "▁আক্রম": 4137,
      "টুকু": 4138,
      "▁ব্রাজ": 4139,
      "▁ওভারে": 4140,
      "্যাণ": 4141,
      "▁গোয়েন্দা": 4142,
      "▁আনুষ্ঠান": 4143,
      "▁টি-টো": 4144,
      "বিজ্ঞ": 4145,
      "্নামেন্ট": 4146,
      "▁দুদ": 4147,
      "▁করেছিলেন": 4148,
      "▁পর্ব": 4149,
      "গীর": 4150,
      "▁কাউন্সিলর": 4151,
      "▁মোবাইল": 4152,
      "▁জরিমান": 4153,
      "▁মৌসু": 4154,
      "▁অন্যদিকে": 4155,
      "দলীয়": 4156,
      "তা।": 4157,
      "তান্ত্রিক": 4158,
      "▁মেয়ের": 4159,
      "▁শুটিং": 4160,
      "মুক্ত": 4161,
      "স।": 4162,
      "ঢাকা": 4163,
      "▁উইকেটে": 4164,
      "াজন": 4165,
      "▁সুলত": 4166,
      "▁আনতে": 4167,
      "নীতির": 4168,
      "▁বাদী": 4169,
      "▁মিড": 4170,
      "▁ভেতর": 4171,
      "▁তাক": 4172,
      "▁নির্ধারণ": 4173,
      "▁সৌদি": 4174,
      "▁প্রজন": 4175,
      "▁জামাল": 4176,
      "টিভ": 4177,
      "▁পাঁচটি": 4178,
      "র্কের": 4179,
      "▁ব্যাটিং": 4180,
      "▁শুরুর": 4181,
      "▁ফি": 4182,
      "▁কণ্": 4183,
      "▁টেলিভিশ": 4184,
      "▁হিন্দ": 4185,
      "▁অপহ": 4186,
      "▁জন্য।": 4187,
      "▁মৌল": 4188,
      "ওয়ান": 4189,
      "▁হুমকি": 4190,
      "▁দৃশ্য": 4191,
      "▁ফেসবুক": 4192,
      "▁ঈদ": 4193,
      "▁নিম": 4194,
      "▁ফো": 4195,
      "▁উন্ম": 4196,
      "▁খোঁজ": 4197,
      "▁৩৫": 4198,
      "▁বারবার": 4199,
      "▁অর্থাৎ": 4200,
      "▁বিমানবন্দ": 4201,
      "▁জরুরি": 4202,
      "▁স্ল": 4203,
      "▁সাহায্য": 4204,
      "▁বসব": 4205,
      "২০১": 4206,
      "তা,": 4207,
      "▁হাকিম": 4208,
      "পরিদ": 4209,
      "পিএ": 4210,
      "iv": 4211,
      "▁কেজি": 4212,
      "▁আটকে": 4213,
      "মাল": 4214,
      "াত্ত": 4215,
      "▁জন।": 4216,
      "▁হত্যাকা": 4217,
      "▁রঙ": 4218,
      "▁গণতন্ত্র": 4219,
      "▁হরত": 4220,
      "▁তৈরির": 4221,
      "▁ক্যান": 4222,
      "নাই": 4223,
      "সিসি": 4224,
      "▁আকর": 4225,
      "▁সদস্যের": 4226,
      "-সম": 4227,
      "▁চালানো": 4228,
      "▁সেদিন": 4229,
      "▁সামরিক": 4230,
      "▁নেই,": 4231,
      "োদ": 4232,
      "▁খুলে": 4233,
      "ব্ল": 4234,
      "্যালেঞ্জ": 4235,
      "▁আওতায়": 4236,
      "▁পাঠিয়ে": 4237,
      "না,": 4238,
      "জিদ": 4239,
      "▁প্রতিক": 4240,
      "▁তত": 4241,
      "▁টুর্নামেন্ট": 4242,
      "▁পানির": 4243,
      "ঘাট": 4244,
      "▁কর্মকা": 4245,
      "ধানে": 4246,
      "▁পরিষ্কার": 4247,
      "▁পেল": 4248,
      "▁সন": 4249,
      "▁সাম্প্র": 4250,
      "▁দুজনের": 4251,
      "▁আসনের": 4252,
      "▁মৃত্যুর": 4253,
      "োনালদ": 4254,
      "ইট": 4255,
      "▁বিনা": 4256,
      "▁জ্বাল": 4257,
      "চু": 4258,
      "▁অধিদপ্তরের": 4259,
      "▁ইয়": 4260,
      "▁(এস": 4261,
      "▁আজিজ": 4262,
      "▁চ্যালেঞ্জ": 4263,
      "▁সবকিছু": 4264,
      "▁ঢুকে": 4265,
      "▁গোলে": 4266,
      "▁যদিও": 4267,
      "দেশের": 4268,
      "▁নিজস্ব": 4269,
      "্য।": 4270,
      "▁সেনাবাহিন": 4271,
      "▁শর্ত": 4272,
      "সাধারণ": 4273,
      "▁নিখ": 4274,
      "শিল্পী": 4275,
      "▁হাবি": 4276,
      "▁গড়": 4277,
      "▁উপপরিদ": 4278,
      "▁রাস্তায়": 4279,
      "▁নীল": 4280,
      "ীতির": 4281,
      "িন।": 4282,
      "▁অংশগ্রহণ": 4283,
      "জম": 4284,
      "▁প্রতিরোধ": 4285,
      "▁পরীক্ষায়": 4286,
      "▁টিকি": 4287,
      "▁মানসিক": 4288,
      "সংখ্য": 4289,
      "▁র‍": 4290,
      "▁জবাব": 4291,
      "িয়াস": 4292,
      "▁পড়ার": 4293,
      "▁প্রশাসনের": 4294,
      "▁একেবার": 4295,
      "▁অস": 4296,
      "্সের": 4297,
      "▁করা।": 4298,
      "▁কর্মকর্তাদের": 4299,
      "ঙ্কার": 4300,
      "ুন,": 4301,
      "▁কিছুদিন": 4302,
      "▁ভাঙচুর": 4303,
      "ড়িতে": 4304,
      "▁মেলা": 4305,
      "ত্ত্বা": 4306,
      "▁বোর্ডের": 4307,
      "ষ্ণ": 4308,
      "▁কারাদ": 4309,
      "▁২০১৬": 4310,
      "▁চতুর্থ": 4311,
      "▁অনুমতি": 4312,
      "▁লিগ": 4313,
      "▁খোলা": 4314,
      "-বি": 4315,
      "▁শক্তি": 4316,
      "দলের": 4317,
      "িগ": 4318,
      "▁আদায়": 4319,
      "▁কিনে": 4320,
      "▁খান,": 4321,
      "ই,": 4322,
      "▁পদ্ধতি": 4323,
      "▁তুলনায়": 4324,
      "▁ভাস": 4325,
      "াণের": 4326,
      "▁উড়": 4327,
      "▁তেল": 4328,
      "িংয়ের": 4329,
      "ot": 4330,
      "▁উপপরিদর্শক": 4331,
      "▁মিস": 4332,
      "▁ইন্টারনে": 4333,
      "▁সঙ্গে।": 4334,
      "▁নষ্ট": 4335,
      "▁আইনশৃঙ্খলা": 4336,
      "কাজ": 4337,
      "▁ধ্ব": 4338,
      "▁জীবনে": 4339,
      "▁ফলা": 4340,
      "▁আইনে": 4341,
      "▁চক্র": 4342,
      "▁স্মরণ": 4343,
      "▁ট্রেন": 4344,
      "ৃতিতে": 4345,
      "▁ত্র": 4346,
      "▁রাই": 4347,
      "িনি।": 4348,
      "▁গুরুতর": 4349,
      "▁ফ্ল": 4350,
      "▁করপোরেশন": 4351,
      "▁দৃষ্টি": 4352,
      "▁কর্মকর্তার": 4353,
      "▁মোড়": 4354,
      "▁স্থগ": 4355,
      "▁স্বাধীনতা": 4356,
      "▁অসুস্থ": 4357,
      "▁সাদ": 4358,
      "লাম,": 4359,
      "কারের": 4360,
      "ু,": 4361,
      "জনক": 4362,
      "▁জিয়ার": 4363,
      "▁প্রয": 4364,
      "▁সচেতন": 4365,
      "▁সংশোধ": 4366,
      "▁মুখোমুখ": 4367,
      "সিস": 4368,
      "▁এরই": 4369,
      "র্জেন্ট": 4370,
      "জাল": 4371,
      "▁জনকে": 4372,
      "▁শাখা": 4373,
      "ব।’": 4374,
      "▁চালক": 4375,
      "বাব": 4376,
      "▁করলেও": 4377,
      "▁ইনিং": 4378,
      "এসসি": 4379,
      "▁ওপরে": 4380,
      "▁উদ্দেশে": 4381,
      "▁ঊ": 4382,
      "ছিয়ে": 4383,
      "▁টুই": 4384,
      "াকারী": 4385,
      "▁এএফ": 4386,
      "মারের": 4387,
      "▁ধারাবাহ": 4388,
      "▁অস্থ": 4389,
      "কেও": 4390,
      "▁অটোর": 4391,
      "▁৩২": 4392,
      "▁ছিন": 4393,
      "োক্ত": 4394,
      "▁ক্ষমতায়": 4395,
      "ৃণ": 4396,
      "▁কারখানা": 4397,
      "▁আন্দোলনের": 4398,
      "▁টি-টোয়েন্টি": 4399,
      "ন্দের": 4400,
      "▁প্রদর্শনী": 4401,
      "গামী": 4402,
      "▁দক্ষ": 4403,
      "১৯": 4404,
      "▁‘ব": 4405,
      "▁আখ": 4406,
      "শক": 4407,
      "▁তালিকায়": 4408,
      "▁প্ল": 4409,
      "▁I": 4410,
      "▁মাশ": 4411,
      "তাল": 4412,
      "▁৫০০": 4413,
      "▁ঘরের": 4414,
      "▁মূলত": 4415,
      "পো": 4416,
      "▁অর্ধ": 4417,
      "ানুর": 4418,
      "▁নিশ্চয়": 4419,
      "▁অব্যাহত": 4420,
      "আপ": 4421,
      "▁সমস্যার": 4422,
      "▁মোস্ত": 4423,
      "▁আনি": 4424,
      "▁আশঙ্কা": 4425,
      "▁মন্ত্র": 4426,
      "▁বলিউ": 4427,
      "▁সপ্তাহে": 4428,
      "▁উত": 4429,
      "োসিয়ে": 4430,
      "▁প্রচ": 4431,
      "▁নির্যাতন": 4432,
      "▁ধাক": 4433,
      "ক্রিয়": 4434,
      "▁পরিণত": 4435,
      "▁পাখ": 4436,
      "▁পার্টি": 4437,
      "▁বলার": 4438,
      "খ্যাত": 4439,
      "াপুর": 4440,
      "▁কারণেই": 4441,
      "স্তাফিজ": 4442,
      "মূলক": 4443,
      "্বল": 4444,
      "▁আদালত।": 4445,
      "▁জন্যই": 4446,
      "▁মৌসুমে": 4447,
      "পন্থ": 4448,
      "▁ঠে": 4449,
      "▁বোন": 4450,
      "▁আক্রান্ত": 4451,
      "▁বার্তা": 4452,
      "▁চাম": 4453,
      "▁নিয়েছেন": 4454,
      "▁মুক্তিযোদ্ধা": 4455,
      "তাস": 4456,
      "▁ক্রিকেটার": 4457,
      "রিয়ার": 4458,
      "▁সার্": 4459,
      "▁যাত্রা": 4460,
      "িদের": 4461,
      "বাড়ী": 4462,
      "মস": 4463,
      "সক্লা": 4464,
      "▁ইংরেজি": 4465,
      "জুড়ে": 4466,
      "খাল": 4467,
      "▁মহাপ": 4468,
      "▁মুখ্য": 4469,
      "তে।": 4470,
      "০)": 4471,
      "▁অভিজ্ঞতা": 4472,
      "ম্য": 4473,
      "▁মুখোমুখি": 4474,
      "▁এজ": 4475,
      "▁সঞ্চ": 4476,
      "▁জয়ের": 4477,
      "▁অর্থবছ": 4478,
      "লাম।": 4479,
      "দানি": 4480,
      "▁বাঙালি": 4481,
      "তেন": 4482,
      "গঠনিক": 4483,
      "▁সান": 4484,
      "হন": 4485,
      "টাও": 4486,
      "▁বিশাল": 4487,
      "য়াজ": 4488,
      "▁আসেন": 4489,
      "▁খেয়ে": 4490,
      "▁ফিরিয়ে": 4491,
      "▁ইকবাল": 4492,
      "▁উভ": 4493,
      "▁প্রেসক্লা": 4494,
      "▁অর্থনীতি": 4495,
      "বীন্দ্র": 4496,
      "▁অ্যাসোসিয়ে": 4497,
      "চ্ছেন।": 4498,
      "▁আপিল": 4499,
      "▁সেগুলো": 4500,
      "▁কালো": 4501,
      "▁বিতর্ক": 4502,
      "জির": 4503,
      "▁ইনিংস": 4504,
      "▁লু": 4505,
      "▁নিয়েই": 4506,
      "▁উপদেষ্টা": 4507,
      "▁এফ": 4508,
      "▁করি,": 4509,
      "▁বাচ্চ": 4510,
      "▁‘আমার": 4511,
      "ড্ড": 4512,
      "▁কার্ড": 4513,
      "▁ভোগ": 4514,
      "▁কর্তৃপক্ষের": 4515,
      "▁নিষেধ": 4516,
      "▁রোনালদ": 4517,
      "▁হোট": 4518,
      "▁পোস্ট": 4519,
      "▁হতো।": 4520,
      "িকাংশ": 4521,
      "▁আসন": 4522,
      "ফিল": 4523,
      "▁লক্ষ্যে": 4524,
      "▁হৃ": 4525,
      "▁শিশুর": 4526,
      "▁বাজ": 4527,
      "▁স্টেড": 4528,
      "▁এগুলো": 4529,
      "▁নজর": 4530,
      "oo": 4531,
      "▁সম্পদ": 4532,
      "ীপুর": 4533,
      "▁আলমগীর": 4534,
      "▁গেল।": 4535,
      "▁S": 4536,
      "▁বিবি": 4537,
      "▁জেনে": 4538,
      "▁অপেক্ষা": 4539,
      "▁করেছে,": 4540,
      "▁বিকল্প": 4541,
      "▁পারবেন": 4542,
      "▁মিন": 4543,
      "টি,": 4544,
      "▁হয়নি": 4545,
      "▁সত্যি": 4546,
      "তেন।": 4547,
      "াইব্য": 4548,
      "▁আসেন।": 4549,
      "▁পরপর": 4550,
      "াইব্যুন": 4551,
      "▁বাস্তবায়ন": 4552,
      "▁করিয়ে": 4553,
      "স্থানীয়": 4554,
      "▁অভ্য": 4555,
      "▁সরিয়ে": 4556,
      "▁শিক্ষাপ্রতিষ্ঠ": 4557,
      "▁কারাদণ্ড": 4558,
      "▁ডা": 4559,
      "নিয়া": 4560,
      "▁ময়মনসিং": 4561,
      "হিত": 4562,
      "চারী": 4563,
      "চনায়": 4564,
      "▁সংস্কৃতি": 4565,
      "বেলা": 4566,
      "▁বলেছে,": 4567,
      "্মে": 4568,
      "তলা": 4569,
      "▁বাসা": 4570,
      "▁বিপুল": 4571,
      "চ্ছেদ": 4572,
      "▁খেতে": 4573,
      "দর": 4574,
      "’র": 4575,
      "▁আলোচনায়": 4576,
      "▁মানবা": 4577,
      "▁সেলিম": 4578,
      "বেল": 4579,
      "▁রাজধানী": 4580,
      "▁পারবে": 4581,
      "সুর": 4582,
      "▁হাও": 4583,
      "▁সংকট": 4584,
      "▁অধিকাংশ": 4585,
      "▁দুঃখ": 4586,
      "▁ঊর": 4587,
      "ুনিক": 4588,
      "▁সুই": 4589,
      "▁৭০": 4590,
      "▁হায়": 4591,
      "ঞ্চলিক": 4592,
      "▁জনগণ": 4593,
      "সারণ": 4594,
      "▁জানিয়েছেন,": 4595,
      "্জা": 4596,
      "▁ঘটনাস্থলে": 4597,
      "▁করেছিলেন।": 4598,
      "▁প্রণ": 4599,
      "গঞ্জে": 4600,
      "ow": 4601,
      "▁আড়াই": 4602,
      "-প্র": 4603,
      "ো,": 4604,
      "ad": 4605,
      "▁শুনানি": 4606,
      "рзН": 4607,
      "ইয়া": 4608,
      "▁স্কুলের": 4609,
      "▁বাগ": 4610,
      "▁সোনার": 4611,
      "▁বাড়িয়ে": 4612,
      "▁উপস্থিতি": 4613,
      "▁ভর": 4614,
      "াদু": 4615,
      "▁এটাই": 4616,
      "▁ইট": 4617,
      "▁প্রার্থীর": 4618,
      "▁স্টেডিয়াম": 4619,
      "▁আর্জেন্ট": 4620,
      "▁জিম": 4621,
      "▁জানিয়েছেন।": 4622,
      "et": 4623,
      "▁ফেরত": 4624,
      "▁অস্ট্রেলিয়া": 4625,
      "▁তারিখ": 4626,
      "▁হেরে": 4627,
      "▁ভাইস": 4628,
      "▁সোন": 4629,
      "▁বিজ": 4630,
      "▁ময়ন": 4631,
      "ঁধে": 4632,
      "রণের": 4633,
      "▁পলা": 4634,
      "▁অম": 4635,
      "▁অপেক্ষ": 4636,
      "▁উঠেছে।": 4637,
      "▁এলে": 4638,
      "▁শতাধিক": 4639,
      "কমিশ": 4640,
      "ন্থ": 4641,
      "▁যাই": 4642,
      "▁ফেডার": 4643,
      "▁জারি": 4644,
      "ন্দকার": 4645,
      "▁যোগ্য": 4646,
      "▁৮০": 4647,
      "▁দিন।": 4648,
      "▁রাজি": 4649,
      "▁বিশ্বকাপে": 4650,
      "▁ওসি": 4651,
      "▁ডিগ্র": 4652,
      "▁সুপারিশ": 4653,
      "▁প্রস": 4654,
      "▁নারীদের": 4655,
      "▁অধ্যক্ষ": 4656,
      "’\n": 4657,
      "▁ধীরে": 4658,
      "▁নির্মাণের": 4659,
      "▁আশ্রয়": 4660,
      "▁সহযোগী": 4661,
      "▁মুহূর্তে": 4662,
      "চ,": 4663,
      "▁স্বীক": 4664,
      "▁পেলে": 4665,
      "▁সাংগঠনিক": 4666,
      "নির্বাচ": 4667,
      "▁অভিভাব": 4668,
      "▁পড়াশ": 4669,
      "▁করেছিল": 4670,
      "▁বক্তব্যে": 4671,
      "▁শূন্য": 4672,
      "▁হামলায়": 4673,
      "▁২০১২": 4674,
      "▁চেয়ারপার": 4675,
      "▁বাহিনী": 4676,
      "▁আসাদ": 4677,
      "কাঠ": 4678,
      "▁দল।": 4679,
      "▁খানের": 4680,
      "▁:": 4681,
      "▁নেয়।": 4682,
      "▁উপাচার্য": 4683,
      "▁প্রতিমন্ত্রী": 4684,
      "াবল": 4685,
      "▁যানজ": 4686,
      "▁নিউজিল্যান্ড": 4687,
      "▁অস্ট্রেলিয়ার": 4688,
      "▁জের": 4689,
      "▁মাইক্র": 4690,
      "▁মঞ্জ": 4691,
      "▁জ্ঞ": 4692,
      "▁দুর্ঘটনা": 4693,
      "▁নির্দিষ্ট": 4694,
      "▁অধি": 4695,
      "▁প্রেমের": 4696,
      "▁আঞ্চলিক": 4697,
      "▁The": 4698,
      "▁পাবেন।": 4699,
      "▁ফোর": 4700,
      "▁ট্রাইব্যুন": 4701,
      "র্গ": 4702,
      "▁গবেষ": 4703,
      "▁আঘাত": 4704,
      "▁জরিমানা": 4705,
      "▁সবুজ": 4706,
      "▁বোঝা": 4707,
      "সচিব": 4708,
      "▁রম": 4709,
      "বন": 4710,
      "িসহ": 4711,
      "▁প্রজন্ম": 4712,
      "▁স্বাগত": 4713,
      "▁ইফ": 4714,
      "উজ": 4715,
      "▁চরিত্র": 4716,
      "▁সার্ব": 4717,
      "▁আবদ": 4718,
      "▁মাসুদ": 4719,
      "হির": 4720,
      "প্রেক্ষ": 4721,
      "▁পারেননি।": 4722,
      "▁উচিত।": 4723,
      "▁আগামীকাল": 4724,
      "ৈর": 4725,
      "-সমর্থ": 4726,
      "▁ছবিটি": 4727,
      "শনের": 4728,
      "▁শুরুতে": 4729,
      "▁ছেলের": 4730,
      "▁নির্ধারিত": 4731,
      "বঙ্গ": 4732,
      "টিল": 4733,
      "▁বস্ত": 4734,
      "তিন": 4735,
      "▁একদিন": 4736,
      "▁ii": 4737,
      "▁রবীন্দ্র": 4738,
      "▁পত": 4739,
      "▁ঘাট": 4740,
      "▁প্রান্ত": 4741,
      "▁উন্নত": 4742,
      "▁স্থগিত": 4743,
      "▁সুষ্ঠ": 4744,
      "▁পরিপ্রেক্ষ": 4745,
      "▁আবাস": 4746,
      "অনুষ্ঠ": 4747,
      "▁মেজ": 4748,
      "ামো": 4749,
      "▁রহমান।": 4750,
      "▁প্রযোজ": 4751,
      "বারিক": 4752,
      "▁টিভি": 4753,
      "কারীরা": 4754,
      "▁গুলশ": 4755,
      "▁ভারতে": 4756,
      "-৫": 4757,
      "▁সমালোচনা": 4758,
      "ওনা": 4759,
      "ান্তি": 4760,
      "লে।": 4761,
      "ীব্র": 4762,
      "▁th": 4763,
      "▁ইঞ্জ": 4764,
      "▁বসবাস": 4765,
      "▁মুসলিম": 4766,
      "▁চে": 4767,
      "থর": 4768,
      "▁মাটি": 4769,
      "শাদ": 4770,
      "্ষণের": 4771,
      "▁পাট": 4772,
      "্মা": 4773,
      "▁সাঁ": 4774,
      "▁খবরে": 4775,
      "▁বিদ্র": 4776,
      "▁থাকে,": 4777,
      "▁পানিতে": 4778,
      "▁মানবাধিকার": 4779,
      "▁জানিয়েছে,": 4780,
      "▁স্কুলে": 4781,
      "▁বিশ্লে": 4782,
      "ুকুর": 4783,
      "হান": 4784,
      "▁প্যা": 4785,
      "ক্ষদর্শ": 4786,
      "▁করলেন": 4787,
      "▁হোসেন।": 4788,
      "▁অনেকের": 4789,
      "▁মেঘ": 4790,
      "ার।": 4791,
      "▁প্রস্তুত": 4792,
      "পণ": 4793,
      "▁বৃদ্ধি": 4794,
      "▁মানববন্ধন": 4795,
      "▁(ডি": 4796,
      "▁রিয়াল": 4797,
      "লীগ": 4798,
      "▁মৌসুম": 4799,
      "র্স": 4800,
      "▁কম।": 4801,
      "ট।": 4802,
      "বুর": 4803,
      "▁তত্ত্বা": 4804,
      "িংয়ে": 4805,
      "▁অঞ্চলের": 4806,
      "▁কবিতা": 4807,
      "▁পরিপ্রেক্ষিতে": 4808,
      "▁রাহ": 4809,
      "▁দলকে": 4810,
      "▁(স": 4811,
      "▁বোধ": 4812,
      "▁A": 4813,
      "▁ব্রিটিশ": 4814,
      "▁উদ্দ": 4815,
      "▁বলেছিলেন,": 4816,
      "▁তবু": 4817,
      "িকান": 4818,
      "▁কেন্দ্রের": 4819,
      "▁শারীর": 4820,
      "▁তীব্র": 4821,
      "рж╛рж": 4822,
      "▁‘বি": 4823,
      "▁আনার": 4824,
      "▁ফেন": 4825,
      "▁গোপন": 4826,
      "বছর": 4827,
      "▁ওয়েস্ট": 4828,
      "▁অদ": 4829,
      "▁স্বরাষ্ট্র": 4830,
      "▁নেতা-কর্মীদের": 4831,
      "▁মহাপরি": 4832,
      "▁শোনা": 4833,
      "▁যশোর": 4834,
      "াতদন্ত": 4835,
      "▁চির": 4836,
      "▁অ্যাট": 4837,
      "▁সাইফুল": 4838,
      "▁সমিতি": 4839,
      "▁দেখানো": 4840,
      "▁সুপ্র": 4841,
      "▁ছো": 4842,
      "ার্": 4843,
      "▁নির্ভর": 4844,
      "▁বাজারের": 4845,
      "▁আয়োজনে": 4846,
      "-র": 4847,
      "▁ম্যান": 4848,
      "▁মতি": 4849,
      "▁চম": 4850,
      "▁বিভাগীয়": 4851,
      "ের।": 4852,
      "▁শিরোন": 4853,
      "▁জড়িয়ে": 4854,
      "▁অর্জ": 4855,
      "▁১১টার": 4856,
      "▁বাত": 4857,
      "▁লন্ড": 4858,
      "▁ইউনিভার": 4859,
      "▁চীন": 4860,
      "▁আলীর": 4861,
      "▁রেজ": 4862,
      "▁দুর্দ": 4863,
      "▁(অ": 4864,
      "▁বোমা": 4865,
      "▁তুলতে": 4866,
      "▁মসজিদ": 4867,
      "▁আপন": 4868,
      "▁প্রবাসী": 4869,
      "▁যথেষ্ট": 4870,
      "▁দিলেন": 4871,
      "▁বেঁধে": 4872,
      "▁একক": 4873,
      "▁মিথ": 4874,
      "▁রিজ": 4875,
      "▁আমদানি": 4876,
      "▁ওয়ার্ডের": 4877,
      "▁চীনের": 4878,
      "▁নাসির": 4879,
      "▁রয়েছেন।": 4880,
      "▁নিয়েছে।": 4881,
      "▁ওঠে": 4882,
      "▁একর": 4883,
      "▁জিনি": 4884,
      "হুল": 4885,
      "▁বাংলাদেশ।": 4886,
      "্যান্ট": 4887,
      "▁পারবেন।": 4888,
      "▁সুষ্ঠু": 4889,
      "▁গঠিত": 4890,
      "ওই": 4891,
      "▁তেম": 4892,
      "্যমাণ": 4893,
      "▁রংপুর": 4894,
      "েরি": 4895,
      "▁সফর": 4896,
      "▁দাস": 4897,
      "▁গেছেন": 4898,
      "▁আউট": 4899,
      "্রাম্যমাণ": 4900,
      "▁বাস্তব": 4901,
      "▁কাঁচ": 4902,
      "▁কারা": 4903,
      "িয়া,": 4904,
      "▁নিখোঁজ": 4905,
      "▁ময়নাতদন্ত": 4906,
      "▁রপ্তানি": 4907,
      "▁বিদ্রোহ": 4908,
      "▁নিয়েছে": 4909,
      "▁অল্প": 4910,
      "▁ধাপ": 4911,
      "▁মনোনয়নপত্র": 4912,
      "▁জানি": 4913,
      "▁শতাংশ।": 4914,
      "▁প্রতিশ": 4915,
      "▁হোক": 4916,
      "▁র‌": 4917,
      "▁মিটার": 4918,
      "কেরা।": 4919,
      "▁তৎপর": 4920,
      "▁ডায়": 4921,
      "মাকে": 4922,
      "▁সন্ত্রাসী": 4923,
      "▁কঠোর": 4924,
      "টক": 4925,
      "টাকে": 4926,
      "▁আশপাশের": 4927,
      "▁ঘোষ": 4928,
      "▁ফ্রান্স": 4929,
      "▁সংযোগ": 4930,
      "▁পেয়েছে": 4931,
      "▁‘য": 4932,
      "পুরি": 4933,
      "▁ক্যারিয়ার": 4934,
      "▁যেভাবে": 4935,
      "▁কর্মসূচির": 4936,
      "▁ফখ": 4937,
      "▁e": 4938,
      "▁অস্বীকার": 4939,
      "▁সুখ": 4940,
      "▁কোম্পানির": 4941,
      "▁পারলে": 4942,
      "ীনে": 4943,
      "িম্প": 4944,
      "▁he": 4945,
      "▁নির্দেশনা": 4946,
      "▁ডিগ্রি": 4947,
      "▁ঐতিহ": 4948,
      "▁দো": 4949,
      "▁বার্সেল": 4950,
      "শফিক": 4951,
      "рж┐": 4952,
      "▁বয়সে": 4953,
      "▁ডু": 4954,
      "▁ডেকে": 4955,
      "▁দেবে": 4956,
      "▁খুলনা": 4957,
      "শেদ": 4958,
      "▁পারিবারিক": 4959,
      "▁দমন": 4960,
      "▁বুদ্ধ": 4961,
      "▁শক্তিশ": 4962,
      "▁তেমনি": 4963,
      "▁স্পষ্ট": 4964,
      "▁সামনের": 4965,
      "▁পারেনি।": 4966,
      "▁আবদুল্লাহ": 4967,
      "▁সাদা": 4968,
      "▁অ্যাক": 4969,
      "▁কাশ": 4970,
      "▁সক্ষম": 4971,
      "▁সিল": 4972,
      "▁আজাদ": 4973,
      "মান্ড": 4974,
      "াজ্ঞ": 4975,
      "▁৪৫": 4976,
      "বান্ধ": 4977,
      "▁টিকিট": 4978,
      "ঁচে": 4979,
      "▁অজ্ঞ": 4980,
      "ীতের": 4981,
      "▁লাইন": 4982,
      "হেত": 4983,
      "▁অত্য": 4984,
      "োরা": 4985,
      "▁নাট্য": 4986,
      "▁করছি।": 4987,
      "▁জটিল": 4988,
      "▁কয়": 4989,
      "▁চৌধুরীর": 4990,
      "▁লেখক": 4991,
      "ac": 4992,
      "বীর": 4993,
      "▁উভয়": 4994,
      "এইচ": 4995,
      "িমের": 4996,
      "▁বিশ্বকাপের": 4997,
      "কৃত": 4998,
      "▁একসময়": 4999,
      "▁শামী": 5000,
      "শিষ্ট": 5001,
      "▁জাক": 5002,
      "▁তত্ত্বাবধ": 5003,
      "▁ভূমি": 5004,
      "▁কাগজ": 5005,
      "বি)": 5006,
      "িদ্ধ": 5007,
      "▁সমাজের": 5008,
      "চাই": 5009,
      "▁অনিয়": 5010,
      "▁অভাব": 5011,
      "শ্বর": 5012,
      "লাপ": 5013,
      "▁বিক্র": 5014,
      "▁চাহিদা": 5015,
      "▁ধারাবাহিক": 5016,
      "▁শ্রদ্ধা": 5017,
      "!’": 5018,
      "মির": 5019,
      "▁জগ": 5020,
      "▁হজ": 5021,
      "▁খুন": 5022,
      "▁মামুন": 5023,
      "-০০": 5024,
      "সম্ম": 5025,
      "▁রবি": 5026,
      "▁ঘণ্টার": 5027,
      "▁সত্যতা": 5028,
      "▁ভ্রাম্যমাণ": 5029,
      "াক্ষর": 5030,
      "সভা": 5031,
      "▁ভবিষ্যতে": 5032,
      "▁মোটরসাইকেল": 5033,
      "দির": 5034,
      "▁সাময়": 5035,
      "▁জানিয়েছে": 5036,
      "▁জানাতে": 5037,
      "জায়": 5038,
      "▁১৯৮": 5039,
      "▁রায়ের": 5040,
      "▁রানা": 5041,
      "্মণ": 5042,
      "▁ভোর": 5043,
      "েম্বরে": 5044,
      "চ্ছিন্ন": 5045,
      "▁নিরাপদ": 5046,
      "▁উঠতে": 5047,
      "ay": 5048,
      "▁মেরে": 5049,
      "ফায়": 5050,
      "▁অধীনে": 5051,
      "▁বেড়েছে।": 5052,
      "▁স্ট্র": 5053,
      "▁পিছিয়ে": 5054,
      "▁পাচার": 5055,
      "▁রফিকুল": 5056,
      "▁ইউনিভার্সি": 5057,
      "্গ": 5058,
      "▁২০১১": 5059,
      "▁পরিবেশন": 5060,
      "সভায়": 5061,
      "োনার": 5062,
      "খ্যান": 5063,
      "▁আবদুস": 5064,
      "সংবাদ": 5065,
      "ধি": 5066,
      "জুর": 5067,
      "▁কানা": 5068,
      "ফাজ": 5069,
      "ৎকার": 5070,
      "েও": 5071,
      "▁পরই": 5072,
      "▁(আই": 5073,
      "▁কৌ": 5074,
      "▁সাহিত্য": 5075,
      "▁মন্দ": 5076,
      "ূন": 5077,
      "▁লেনদেন": 5078,
      "▁যাব": 5079,
      "ান্য": 5080,
      "▁মানুষ।": 5081,
      "▁মালয়ে": 5082,
      "পিয়ে": 5083,
      "▁বাড়তি": 5084,
      "▁হিন্দু": 5085,
      "▁(সি": 5086,
      "্বাধীন": 5087,
      "▁সংবিধান": 5088,
      "▁‘দ": 5089,
      "বাসীর": 5090,
      "ছিলাম": 5091,
      "নীয়": 5092,
      "যন্ত্র": 5093,
      "▁প্রতিবাদে": 5094,
      "▁ফেরার": 5095,
      "পোর্ট": 5096,
      "▁সার্ভিস": 5097,
      "▁নিষিদ্ধ": 5098,
      "▁যানবাহন": 5099,
      "▁নিক": 5100,
      "▁খান।": 5101,
      "▁ইউপি": 5102,
      "▁পৃথিবীর": 5103,
      "us": 5104,
      "▁‘প": 5105,
      "▁সাড়া": 5106,
      "▁করতেন।": 5107,
      "▁কতটা": 5108,
      "▁সেসব": 5109,
      "▁তোলার": 5110,
      "▁প্রি": 5111,
      "১১": 5112,
      "▁চারজন": 5113,
      "▁জামিন": 5114,
      "▁বাছাই": 5115,
      "▁গৌ": 5116,
      "▁নৌকা": 5117,
      "▁বিদ্যালয়ে": 5118,
      "▁তান": 5119,
      "রো": 5120,
      "▁বলে,": 5121,
      "▁ঘা": 5122,
      "am": 5123,
      "বিক": 5124,
      "▁জমির": 5125,
      "▁মারধর": 5126,
      "্যাগ": 5127,
      "▁শাস্তি": 5128,
      "▁রাস্তার": 5129,
      "▁বিধান": 5130,
      "▁প্রদান": 5131,
      "▁ক্রী": 5132,
      "▁সুপ্রিম": 5133,
      "শী": 5134,
      "▁ওঠে।": 5135,
      "▁ফাউন্ড": 5136,
      "▁এঁ": 5137,
      "▁স্থাপন": 5138,
      "▁দাবি,": 5139,
      "▁মোকা": 5140,
      "নীর": 5141,
      "▁iii": 5142,
      "পুর,": 5143,
      "▁গাড়ির": 5144,
      "বর্ধ": 5145,
      "’-এর": 5146,
      "▁উপায়": 5147,
      "▁ঢুক": 5148,
      "▁পর্যবে": 5149,
      "▁ইসলাম।": 5150,
      "াত্মক": 5151,
      "▁মিজানুর": 5152,
      "▁রাজ্য": 5153,
      "ব্লিউ": 5154,
      "▁আজকের": 5155,
      "▁ওস": 5156,
      "▁পাকিস্তানি": 5157,
      "োয়": 5158,
      "▁কলেজে": 5159,
      "পথে": 5160,
      "▁‘হ": 5161,
      "▁শীত": 5162,
      "▁প্রতিবেশ": 5163,
      "▁আসছে।": 5164,
      "▁বায়": 5165,
      "▁স্নাত": 5166,
      "▁রিয়": 5167,
      "▁ফাইনালে": 5168,
      "াজিত": 5169,
      "বিশ্বাস": 5170,
      "▁মোশার": 5171,
      "▁গায়ে": 5172,
      "▁নিয়ন্ত্রণে": 5173,
      "▁দোষ": 5174,
      "▁প্রকৌশল": 5175,
      "ঞ্চিত": 5176,
      "▁সংসদের": 5177,
      "▁মুঠোফোন": 5178,
      "ঢ়": 5179,
      "মুল": 5180,
      "▁শন": 5181,
      "▁ডাকাত": 5182,
      "▁মির্জা": 5183,
      "▁জামায়াত": 5184,
      "el": 5185,
      "▁মেল": 5186,
      "▁আধুনিক": 5187,
      "▁জোটের": 5188,
      "▁অত্যন্ত": 5189,
      "রক্ষণ": 5190,
      "▁ছাপা": 5191,
      "▁ধ্বংস": 5192,
      "▁নিম্ন": 5193,
      "তারা": 5194,
      "▁শ্রমিকদের": 5195,
      "জানা": 5196,
      "▁টা": 5197,
      "▁সংখ": 5198,
      "▁ঘটেছে।": 5199,
      "▁খাতের": 5200,
      "▁জেলায়": 5201,
      "্লার": 5202,
      "▁ইন্ডিজ": 5203,
      "ut": 5204,
      "▁সত্ত": 5205,
      "▁নিষেধাজ্ঞ": 5206,
      "দুদ": 5207,
      "▁কৃষক": 5208,
      "▁রোহিঙ্গা": 5209,
      "▁দায়ী": 5210,
      "рзНрж": 5211,
      "▁চাই।": 5212,
      "▁আফগান": 5213,
      "▁বিজি": 5214,
      "▁নিয়েছেন।": 5215,
      "▁গ্রুপের": 5216,
      "▁ঘিরে": 5217,
      "▁কর্মকাণ্ড": 5218,
      "▁কেন?": 5219,
      "▁ফেলা": 5220,
      "▁সিনেমা": 5221,
      "▁অনুসন্ধ": 5222,
      "▁এয়ার": 5223,
      "▁আত্মীয়": 5224,
      "▁সমন্বয়": 5225,
      "▁ব্যবহারের": 5226,
      "▁বোলার": 5227,
      "▁মাধ্যমিক": 5228,
      "▁উৎসবের": 5229,
      "▁ফায়ার": 5230,
      "ওয়াজ": 5231,
      "▁যথা": 5232,
      "সভার": 5233,
      "▁সমাবেশে": 5234,
      "▁আক্রমণ": 5235,
      "▁ব্যক্তিকে": 5236,
      "▁মতে,": 5237,
      "▁শোভা": 5238,
      "▁কুমিল্লা": 5239,
      "▁দাখ": 5240,
      "বার্ষিক": 5241,
      "তুল": 5242,
      "▁কক্ষ": 5243,
      "▁চলতে": 5244,
      "মন্ড": 5245,
      "▁নিজেই": 5246,
      "▁বলেও": 5247,
      "▁খন্দকার": 5248,
      "▁ফখরুল": 5249,
      "▁৯০": 5250,
      "▁আধা": 5251,
      "▁পড়েছে": 5252,
      "-ও": 5253,
      "দৌ": 5254,
      "▁দায়ের": 5255,
      "-২০": 5256,
      "▁মাশরাফ": 5257,
      "▁চুল": 5258,
      "▁পার্": 5259,
      "▁শুভ।": 5260,
      "ঙ্গা": 5261,
      "▁দুর্দান্ত": 5262,
      "▁H": 5263,
      "▁জমিতে": 5264,
      "▁নিয়ে।": 5265,
      "▁সম্পূর্ণ": 5266,
      "▁পরিচালিত": 5267,
      "▁শীর্ষক": 5268,
      "কলা": 5269,
      "্ণ": 5270,
      "▁পুরোপুরি": 5271,
      "▁৩০০": 5272,
      "▁ইনিংসে": 5273,
      "াপ্র": 5274,
      "▁মুক্তিযুদ্ধের": 5275,
      "▁প্রাক": 5276,
      "দানের": 5277,
      "▁ট্রাম্পের": 5278,
      "▁বিচারক": 5279,
      "▁তাজ": 5280,
      "▁অনুপ": 5281,
      "ীবাজার": 5282,
      "▁পরিশোধ": 5283,
      "জানতে": 5284,
      "▁(এ": 5285,
      "২০": 5286,
      "ট্রিক": 5287,
      "টারি": 5288,
      "ফ্র": 5289,
      "▁থাম": 5290,
      "▁ডল": 5291,
      "▁ছয়টি": 5292,
      "▁দোকানে": 5293,
      "▁নেতা-কর্মীরা": 5294,
      "▁ভরা": 5295,
      "▁চরম": 5296,
      "▁৩৩": 5297,
      "▁জিজ্ঞাসাবাদ": 5298,
      "▁বেছে": 5299,
      "▁স্বে": 5300,
      "▁হক,": 5301,
      "▁উপস্থাপন": 5302,
      "▁স্বাক্ষর": 5303,
      "গগির": 5304,
      "▁করুন।": 5305,
      "▁হরতাল": 5306,
      "▁শক্তিশালী": 5307,
      "▁পান।": 5308,
      "▁হৃদ": 5309,
      "▁মিথ্যা": 5310,
      "▁তাপ": 5311,
      "▁উদ্দেশ্য": 5312,
      "ৃত্য": 5313,
      "▁শারীরিক": 5314,
      "▁চিহ্নিত": 5315,
      "▁ঊর্ধ্ব": 5316,
      "ভেল": 5317,
      "▁৩৬": 5318,
      "▁খুশি": 5319,
      "▁প্রব": 5320,
      "হেতু": 5321,
      "গাছ": 5322,
      "▁(এসআই)": 5323,
      "▁ক্রিকেটে": 5324,
      "s.": 5325,
      "▁টেবিল": 5326,
      "্যান্স": 5327,
      "▁কক্ষে": 5328,
      "▁রস": 5329,
      "▁সাব": 5330,
      "হত্যা": 5331,
      "ছড়ি": 5332,
      "▁ভক্ত": 5333,
      "▁উপহার": 5334,
      "▁বরিশাল": 5335,
      "▁জনসং": 5336,
      "▁উন্নয়নের": 5337,
      "▁আবাসিক": 5338,
      "▁খাওয়া": 5339,
      "ঝো": 5340,
      "িড": 5341,
      "▁প্রতিবছর": 5342,
      "ur": 5343,
      "▁নিরাপত্তার": 5344,
      "▁পদত্যা": 5345,
      "▁এদের": 5346,
      "▁টান": 5347,
      "▁রশিদ": 5348,
      "অনুষ্ঠানে": 5349,
      "▁বিসি": 5350,
      "▁আরব": 5351,
      "▁ঘুর": 5352,
      "▁তুর": 5353,
      "-শ": 5354,
      "▁১০টার": 5355,
      "▁টাকায়": 5356,
      "▁আলোচনার": 5357,
      "নে।": 5358,
      "▁রাষ্ট্রপতি": 5359,
      "▁অভিযোগপত্র": 5360,
      "▁ইত্যাদি": 5361,
      "▁বেঁচে": 5362,
      "বোর্ড": 5363,
      "▁ঘোষণার": 5364,
      "ফু": 5365,
      "▁যে,": 5366,
      "শুর": 5367,
      "▁লিগে": 5368,
      "▁জাদু": 5369,
      "১০": 5370,
      "▁ইমর": 5371,
      "তিক্রম": 5372,
      "▁পঞ্চম": 5373,
      "ছুর": 5374,
      "▁তহ": 5375,
      "▁ফলাফল": 5376,
      "▁আদর্শ": 5377,
      "▁তারা।": 5378,
      "▁ক্লাস": 5379,
      "▁ওদের": 5380,
      "▁অতিথ": 5381,
      "ঞ্জন": 5382,
      "▁অনুশীল": 5383,
      "▁এশিয়া": 5384,
      "▁দিনাজ": 5385,
      "▁চান।": 5386,
      "▁পৃথক": 5387,
      "▁y": 5388,
      "▁প্রয়োগ": 5389,
      "▁ভালো।": 5390,
      "▁কারখানার": 5391,
      "▁রঙের": 5392,
      "▁সাহে": 5393,
      "▁সুনাম": 5394,
      "▁পরিদর্শক": 5395,
      "প্রযুক্ত": 5396,
      "▁কী?": 5397,
      "ুনের": 5398,
      "সাং": 5399,
      "▁এখান": 5400,
      "—এমন": 5401,
      "উপজেলা": 5402,
      "▁যাচাই": 5403,
      "▁প্রার্থীদের": 5404,
      "▁W": 5405,
      "▁কৃত": 5406,
      "যুদ্ধ": 5407,
      "▁মেয়াদ": 5408,
      "▁এদিকে": 5409,
      "তাদের": 5410,
      "▁২০১০": 5411,
      "--": 5412,
      "▁শিগগির": 5413,
      "▁দরকার।": 5414,
      "প্রশ্ন": 5415,
      "▁প্রতিষ্ঠা": 5416,
      "▁টেস্টে": 5417,
      "▁সঙ্গ": 5418,
      "▁অন্যদের": 5419,
      "▁পাব": 5420,
      "▁মনের": 5421,
      "im": 5422,
      "যথ": 5423,
      "▁দফা": 5424,
      "▁পাহাড়": 5425,
      "▁সম্পন্ন": 5426,
      "▁জানুয়ার": 5427,
      "▁হয়র": 5428,
      "না।": 5429,
      "▁প্রতিবন্ধ": 5430,
      "▁অ্যান": 5431,
      "▁অগ": 5432,
      "▁বিবেচনা": 5433,
      "▁ধন্য": 5434,
      "▁সন্তানের": 5435,
      "▁রক্ষাকারী": 5436,
      "▁অভিবাস": 5437,
      "▁ধাক্কা": 5438,
      "▁ভ্রম": 5439,
      "▁ঐক্য": 5440,
      "▁ফ্লা": 5441,
      "ন্যাশনাল": 5442,
      "▁ফেসবুকে": 5443,
      "▁আসছে": 5444,
      "িটাল": 5445,
      "সংগ": 5446,
      "▁সময়ই": 5447,
      "শাখ": 5448,
      "কত": 5449,
      "র।": 5450,
      "▁পরদিন": 5451,
      "▁শরি": 5452,
      "ণী": 5453,
      "নিয়": 5454,
      "এসের": 5455,
      "▁পল": 5456,
      "▁উৎসাহ": 5457,
      "▁স্বীকৃতি": 5458,
      "ুব্ধ": 5459,
      "▁অনেকটা": 5460,
      "▁প্রকৃত": 5461,
      "▁অলিম্প": 5462,
      "▁ম্যানে": 5463,
      "▁যৌন": 5464,
      "▁নম্ব": 5465,
      "▁আলোক": 5466,
      "▁শনাক্ত": 5467,
      "টস": 5468,
      "ষ্ট্রে": 5469,
      "▁গরম": 5470,
      "স্তি": 5471,
      "মূ": 5472,
      "২)": 5473,
      "ec": 5474,
      "▁রোড": 5475,
      "াকের": 5476,
      "▁ভিড়": 5477,
      "▁শরণ": 5478,
      "▁প্রত্যাহার": 5479,
      "▁সংবাদমাধ্য": 5480,
      "▁আড়": 5481,
      "▁re": 5482,
      "ানিতে": 5483,
      "▁সাফল্য": 5484,
      "▁বোলিং": 5485,
      "e.": 5486,
      "গরের": 5487,
      "▁হাসিনার": 5488,
      "▁করেননি।": 5489,
      "ণ্ডল": 5490,
      "সূত্র": 5491,
      "▁দু-": 5492,
      "▁বিবৃতিতে": 5493,
      "▁টিভ": 5494,
      "▁ক্রীড়া": 5495,
      "বাই": 5496,
      "ুল্ক": 5497,
      "▁ধর্ষণের": 5498,
      "▁প্রাই": 5499,
      "▁ইন্টারনেট": 5500,
      "▁মেয়েদের": 5501,
      "▁ভাষায়": 5502,
      "বৈ": 5503,
      "▁পেয়েছেন।": 5504,
      "িনির": 5505,
      "▁অন্তর্": 5506,
      "▁দর্শক": 5507,
      "▁শাস": 5508,
      "▁অভিযুক্ত": 5509,
      "▁১২টার": 5510,
      "▁সংরক্ষণ": 5511,
      "র্ন": 5512,
      "▁শিক্ষকদের": 5513,
      "id": 5514,
      "▁মানিক": 5515,
      "▁সাম্প্রতিক": 5516,
      "▁জজ": 5517,
      "▁দুর্বল": 5518,
      "▁সুস্থ": 5519,
      "▁চলবে": 5520,
      "▁পড়েন।": 5521,
      "াব্যব": 5522,
      "▁কমপ্লেক্সে": 5523,
      "▁ম্যাক": 5524,
      "▁হই": 5525,
      "▁ভুলে": 5526,
      "▁ক্ষমতাস": 5527,
      "ীর্ণ": 5528,
      "▁ভবনে": 5529,
      "▁সরকার।": 5530,
      "ভাই": 5531,
      "কিন্তু": 5532,
      "▁গণতান্ত্রিক": 5533,
      "▁ব্যাখ্যা": 5534,
      "▁পাবল": 5535,
      "িজি": 5536,
      "াকুর": 5537,
      "▁যাওয়ায়": 5538,
      "▁রান্না": 5539,
      "▁প্রতিযোগিতা": 5540,
      "▁ধরতে": 5541,
      "হিদ": 5542,
      "▁দিয়েই": 5543,
      "দূত": 5544,
      "▁সংরক্ষ": 5545,
      "বায়দুল": 5546,
      "▁৩৪": 5547,
      "▁ছিনতাই": 5548,
      "▁ডাকা": 5549,
      "াসার": 5550,
      "▁গরু": 5551,
      "▁সেঞ্চুরি": 5552,
      "▁তৃণ": 5553,
      "▁হোটেল": 5554,
      "ir": 5555,
      "▁ওরা": 5556,
      "▁ইজ": 5557,
      "▁কৌশল": 5558,
      "▁ব্রাজিল": 5559,
      "▁সোনা": 5560,
      "▁আগেও": 5561,
      "্ভূত": 5562,
      "▁গুগ": 5563,
      "▁নদীতে": 5564,
      "▁উদ্বে": 5565,
      "▁সরকারকে": 5566,
      "▁‘আমাদের": 5567,
      "▁সমুদ্র": 5568,
      "▁প্রয়োজন।": 5569,
      "ডাঙ্গ": 5570,
      "▁মজুম": 5571,
      "▁ছাপ": 5572,
      "লগ্ন": 5573,
      "▁আহসান": 5574,
      "▁লাগে।": 5575,
      "▁ভাইয়ের": 5576,
      "▁পরিদর্শন": 5577,
      "দেশে": 5578,
      "▁ওভার": 5579,
      "▁বলল,": 5580,
      "যাত্রা": 5581,
      "▁জাহাজ": 5582,
      "▁রিকশা": 5583,
      "▁পেট্র": 5584,
      "▁চৌধুরী।": 5585,
      "ষা": 5586,
      "লাইন": 5587,
      "ট,": 5588,
      "▁না?": 5589,
      "▁পারফর": 5590,
      "াল।": 5591,
      "্নান": 5592,
      "▁প্রতিক্র": 5593,
      "েশনে": 5594,
      "▁মঞ্চে": 5595,
      "্যাঁ": 5596,
      "▁ডেম": 5597,
      "বিদ্ধ": 5598,
      "▁“": 5599,
      "▁ত্রি": 5600,
      "নিষ্ঠ": 5601,
      "▁চালা": 5602,
      "▁যুবলীগের": 5603,
      "▁সমান": 5604,
      "▁গণমাধ্যম": 5605,
      "▁স্টার": 5606,
      "▁মাঠের": 5607,
      "থার": 5608,
      "▁আকর্ষণ": 5609,
      "▁B": 5610,
      "তাবাস": 5611,
      "টেই": 5612,
      "োতে": 5613,
      "▁গ্যাল": 5614,
      "▁মুশফিক": 5615,
      "লেক": 5616,
      "▁অধিক": 5617,
      "ংসা": 5618,
      "▁সোহেল": 5619,
      "ন্তর": 5620,
      "▁জাতিসংঘের": 5621,
      "▁যথাযথ": 5622,
      "▁দায়ে": 5623,
      "▁চাওয়া": 5624,
      "▁করেও": 5625,
      "জমিনে": 5626,
      "▁ব্যবস্থাপক": 5627,
      "▁অভিযোগের": 5628,
      "▁বার্ষিক": 5629,
      "▁বহি": 5630,
      "দেহ": 5631,
      "ন্দন": 5632,
      "▁সাঈ": 5633,
      "▁বাসের": 5634,
      "▁দুর্ঘটনায়": 5635,
      "িমা": 5636,
      "▁বিকা": 5637,
      "▁বিদায়": 5638,
      "▁আহমেদ,": 5639,
      "জাতীয়": 5640,
      "▁বালু": 5641,
      "▁দিচ্ছে।": 5642,
      "▁ডান": 5643,
      "▁গেলেও": 5644,
      "▁ইতিবাচক": 5645,
      "▁গ্রহণের": 5646,
      "▁ড.": 5647,
      "▁গুঁ": 5648,
      "▁সেন্টার": 5649,
      "▁প্রচুর": 5650,
      "▁উজ্জ": 5651,
      "▁মহা": 5652,
      "উল্লাহ": 5653,
      "▁চোখের": 5654,
      "▁কূ": 5655,
      "▁রিমান্ড": 5656,
      "▁দৈনিক": 5657,
      "▁টার": 5658,
      "▁থাকেন": 5659,
      "▁ওঠার": 5660,
      "উদ্দ": 5661,
      "▁শিব": 5662,
      "▁জলা": 5663,
      "টেডের": 5664,
      "িবিরের": 5665,
      "▁সমঝো": 5666,
      "িয়াক": 5667,
      "▁মিয়ার": 5668,
      "▁ধন্যবাদ": 5669,
      "▁ভোটের": 5670,
      "যোগী": 5671,
      "▁চিকিৎসাধীন": 5672,
      "▁হিসাবে": 5673,
      "▁ঘন": 5674,
      "▁করছেন,": 5675,
      "▁পাঠানোর": 5676,
      "▁বিস্ম": 5677,
      "▁২০১৭": 5678,
      "▁লোকজনের": 5679,
      "▁কাটিয়ে": 5680,
      "ায়ন": 5681,
      "▁ছেলে।": 5682,
      "▁পর্যায়ের": 5683,
      "▁দূতাবাস": 5684,
      "▁সিলেটের": 5685,
      "▁প্রতিশ্রু": 5686,
      "▁জিনিস": 5687,
      "ু।": 5688,
      "▁মর্": 5689,
      "▁জেল": 5690,
      "▁অজ্ঞাত": 5691,
      "য়েত": 5692,
      "▁তালুক": 5693,
      "োগান": 5694,
      "▁সামান্য": 5695,
      "পক্ষের": 5696,
      "▁গঠনের": 5697,
      "▁ইনস্টিটিউট": 5698,
      "▁চ্যানেল": 5699,
      "▁গ্রেপ্তারের": 5700,
      "▁সংক": 5701,
      "▁হান": 5702,
      "▁বিবেচনায়": 5703,
      "▁ইচ্ছা": 5704,
      "▁ট্রা": 5705,
      "▁অভিষ": 5706,
      "▁খেলোয়াড়দের": 5707,
      "▁দুটো": 5708,
      "▁আইনি": 5709,
      "্টন": 5710,
      "▁দেবে।": 5711,
      "▁প্রমুখ।\n": 5712,
      "e)": 5713,
      "ol": 5714,
      "▁উদ্যোক্ত": 5715,
      "্যাবের": 5716,
      "বিএন": 5717,
      "▁কংগ্রেস": 5718,
      ".)": 5719,
      "▁পর্বে": 5720,
      "▁ওঠা": 5721,
      "▁টন": 5722,
      "▁প্রতিযোগিতায়": 5723,
      "▁বলেছেন": 5724,
      "▁জব্দ": 5725,
      "▁পার্ক": 5726,
      "▁সংঘ": 5727,
      "▁শের": 5728,
      "▁নও": 5729,
      "সনের": 5730,
      "▁অনুপ্র": 5731,
      "▁মতো।": 5732,
      "▁সাক্ষ্য": 5733,
      "বানবন্দ": 5734,
      "▁যেহেতু": 5735,
      "▁সাময়িক": 5736,
      "▁কোনটি": 5737,
      "্কার": 5738,
      "-সংক্রান্ত": 5739,
      "▁দুধ": 5740,
      "মিত": 5741,
      "▁পারছেন": 5742,
      "শেষে": 5743,
      "▁সেতুর": 5744,
      "▁চেয়ারপারসন": 5745,
      "▁উল্টো": 5746,
      "▁লাগিয়ে": 5747,
      "▁নির্যাতনের": 5748,
      "▁সংসদে": 5749,
      "কান": 5750,
      "▁মেসি": 5751,
      "ুদ্দ": 5752,
      "▁অর্থমন্ত্রী": 5753,
      "▁মুদ্র": 5754,
      "ver": 5755,
      "-ন": 5756,
      "▁শামীম": 5757,
      "▁বেঞ্চ": 5758,
      "ামাল": 5759,
      "ধাব": 5760,
      "গরে": 5761,
      "ুদ্দিন": 5762,
      "▁বাম": 5763,
      "▁আবে": 5764,
      "▁প্রবৃদ্ধ": 5765,
      "ুরির": 5766,
      "▁বিজ্ঞপ্তিতে": 5767,
      "ak": 5768,
      "▁সই": 5769,
      "▁সিম": 5770,
      "▁এনাম": 5771,
      "▁‘শ": 5772,
      "▁কলা": 5773,
      "▁ডিজিটাল": 5774,
      "▁মতোই": 5775,
      "▁অপহরণ": 5776,
      "▁মিয়ানমারের": 5777,
      "৮)": 5778,
      "▁শুল্ক": 5779,
      "▁সাপ": 5780,
      "▁ট্রে": 5781,
      "▁মম": 5782,
      "▁টেনে": 5783,
      "▁সাধারণত": 5784,
      "▁জানালেন,": 5785,
      "টেক": 5786,
      "▁নিবন্ধন": 5787,
      "বিনি": 5788,
      "▁বীর": 5789,
      "ুকের": 5790,
      "▁মোল্লা": 5791,
      "▁রাজ্জ": 5792,
      "▁নাজমুল": 5793,
      "ভো": 5794,
      "▁পুঁ": 5795,
      "▁নোয়া": 5796,
      "▁তাৎ": 5797,
      "ষ্ঠীর": 5798,
      "ভাস": 5799,
      "▁ঐতিহ্য": 5800,
      "কেন": 5801,
      "▁ভিস": 5802,
      "▁প্রেক্ষ": 5803,
      "com": 5804,
      "ার্থীদের": 5805,
      "োত্তর": 5806,
      "▁ভী": 5807,
      "িত্রে": 5808,
      "চনার": 5809,
      "▁টাঙ্গ": 5810,
      "রাই": 5811,
      "ভিল": 5812,
      "ul": 5813,
      "▁বিদেশে": 5814,
      "▁দফায়": 5815,
      "রফ": 5816,
      "▁তামিম": 5817,
      "▁অ্যাড": 5818,
      "▁মঞ্জুর": 5819,
      "▁থেকেও": 5820,
      "নেস": 5821,
      "▁পড়াশোনা": 5822,
      "তেও": 5823,
      "▁অভিযোগ,": 5824,
      "▁ইউনিয়নে": 5825,
      "▁মোস্তফা": 5826,
      "▁মেশ": 5827,
      "▁৩৭": 5828,
      "ামীর": 5829,
      "▁বাংলার": 5830,
      "পেক্ষ": 5831,
      "▁দুজনকে": 5832,
      "ফট": 5833,
      "▁পৌনে": 5834,
      "▁বাড়ানোর": 5835,
      "▁বেন": 5836,
      "▁কামরুল": 5837,
      "বিধা": 5838,
      "▁মাটিতে": 5839,
      "▁নেতার": 5840,
      "মেয়ে": 5841,
      "▁দেবেন": 5842,
      "▁মুহাম্মদ": 5843,
      "মাম": 5844,
      "▁টাকা,": 5845,
      "বাগত": 5846,
      "▁১০টি": 5847,
      "▁ভূঁ": 5848,
      "োড়": 5849,
      "▁একেবারে": 5850,
      "্রা": 5851,
      "▁জমে": 5852,
      "্লি": 5853,
      "▁(ইউপি)": 5854,
      "ম্বা": 5855,
      "▁পল্ল": 5856,
      "▁কাপড়": 5857,
      "াহ্মণ": 5858,
      "▁বছর।": 5859,
      "যোগে": 5860,
      "সাল": 5861,
      "▁স্টি": 5862,
      "▁স্বেচ্ছ": 5863,
      "▁শ্রম": 5864,
      "▁পেয়েছে।": 5865,
      "—এই": 5866,
      "▁দিচ্ছে": 5867,
      "▁দুর্ভ": 5868,
      "▁স্মার্টফোন": 5869,
      "▁বিচ্ছিন্ন": 5870,
      "▁মহাসড়কের": 5871,
      "▁রুহুল": 5872,
      "▁কূট": 5873,
      "▁শিখ": 5874,
      "ৃত্তি": 5875,
      "▁করব": 5876,
      "▁বন্দর": 5877,
      "▁কালাম": 5878,
      "▁পেন": 5879,
      "িলে": 5880,
      "▁যিনি": 5881,
      "▁লিমিটেড": 5882,
      "▁উদ্বোধনী": 5883,
      "▁সঞ্চাল": 5884,
      "▁বুঝে": 5885,
      "▁হয়েছিল,": 5886,
      "▁ক্যামের": 5887,
      "▁সূর": 5888,
      "▁করেন।\n": 5889,
      "▁পূর": 5890,
      "▁উপস্থাপ": 5891,
      "▁এরশাদ": 5892,
      "▁ধর্মীয়": 5893,
      "্নার": 5894,
      "▁কথা,": 5895,
      "ড়ে।": 5896,
      "▁দ্বি": 5897,
      "▁অভিনেতা": 5898,
      "▁মোস্তাফিজ": 5899,
      "▁অবস্থিত": 5900,
      "কুম": 5901,
      "▁শুক": 5902,
      "▁ছুটে": 5903,
      "ষ্ঠী": 5904,
      "▁তারেক": 5905,
      "▁ছাত্রী": 5906,
      "▁(ইউএনও": 5907,
      "▁৪২": 5908,
      "▁ভোরে": 5909,
      "▁অন্ধ": 5910,
      "▁কল্যাণ": 5911,
      "▁দণ্ড": 5912,
      "রিতে": 5913,
      "▁কণ্ঠ": 5914,
      "▁ক্লাবের": 5915,
      "▁ভয়ে": 5916,
      "▁সিরিজের": 5917,
      "▁জবানবন্দ": 5918,
      "▁সিনেম": 5919,
      "▁আয়ের": 5920,
      "▁সনদ": 5921,
      "▁বাড়ানো": 5922,
      "▁প্রতীক": 5923,
      "বাম": 5924,
      "▁সফরে": 5925,
      "▁করছে,": 5926,
      "▁মুক্তিযোদ্ধ": 5927,
      "▁পতাকা": 5928,
      "দার,": 5929,
      "▁বাংলাদেশকে": 5930,
      "▁অ্যাম": 5931,
      "▁সায়": 5932,
      "▁হতাশ": 5933,
      "▁ক্ষমতাসীন": 5934,
      "▁অন্তর্ভুক্ত": 5935,
      "▁আনুষ্ঠানিক": 5936,
      "est": 5937,
      "ধন": 5938,
      "পন্থী": 5939,
      "▁সক্রিয়": 5940,
      "▁শুভে": 5941,
      "মিয়ার": 5942,
      "হারের": 5943,
      "▁সম্মেলনের": 5944,
      "পদ": 5945,
      "▁রাষ্ট্রদূত": 5946,
      "▁সংঘর্ষে": 5947,
      "▁ইনস্টিটিউ": 5948,
      "▁দাখিল": 5949,
      "▁খাতুন": 5950,
      "▁ক্রিকেটের": 5951,
      "▁আপনাকে": 5952,
      "্বেও": 5953,
      "▁লঞ্চ": 5954,
      "▁প্রথমবারের": 5955,
      "▁হোটে": 5956,
      "▁৩৮": 5957,
      "▁অংশে": 5958,
      "▁দায়িত্বে": 5959,
      "ডি)": 5960,
      "▁রয়": 5961,
      "▁হাতের": 5962,
      "▁আব্দ": 5963,
      "▁করেনি।": 5964,
      "▁একাদ": 5965,
      "▁দিনব্যাপী": 5966,
      "▁মেলায়": 5967,
      "ায়া": 5968,
      "▁পাত": 5969,
      "িন,": 5970,
      "পি।": 5971,
      "▁চিক": 5972,
      "▁মর্যা": 5973,
      "রাষ্ট্রে": 5974,
      "▁ভালোবাসা": 5975,
      "▁ধরেই": 5976,
      "▁পুড়ে": 5977,
      "ডিস": 5978,
      "চ্চার": 5979,
      "ুয়ে": 5980,
      "▁বিজয়ী": 5981,
      "▁অ্য": 5982,
      "▁প্রতিশ্রুতি": 5983,
      "ঁটে": 5984,
      "দ্দিন": 5985,
      "▁উঠেছে": 5986,
      "শির": 5987,
      "ুরি।": 5988,
      "য়াবহ": 5989,
      "▁চিকিৎসার": 5990,
      "i.": 5991,
      "দম": 5992,
      "▁বিপরীতে": 5993,
      "▁সেটাই": 5994,
      "▁রহিম": 5995,
      "▁ইউনাই": 5996,
      "▁ইসরা": 5997,
      "▁রেজাউল": 5998,
      "▁২০০৯": 5999,
      "পাট": 6000,
      "▁পায়ে": 6001,
      "য়োজনের": 6002,
      "▁হাট": 6003,
      "▁হাঁট": 6004,
      "▁এশ": 6005,
      "▁মহাপরিচালক": 6006,
      "▁পেঁ": 6007,
      "▁(ইউএনও)": 6008,
      "▁ব্র্যান্ড": 6009,
      "ro": 6010,
      "ার্স": 6011,
      "▁খোঁ": 6012,
      "▁জানে": 6013,
      "▁পুলিশকে": 6014,
      "▁আমেরিকার": 6015,
      "▁সিক": 6016,
      "টিই": 6017,
      "খালীর": 6018,
      "াচ": 6019,
      "▁নিয়েও": 6020,
      "▁কখনোই": 6021,
      "▁অবদান": 6022,
      "▁ইন্টারন্যাশনাল": 6023,
      "▁পেরিয়ে": 6024,
      "▁কাছে।": 6025,
      "▁সোয়া": 6026,
      "▁রয়েছে,": 6027,
      "গাদ": 6028,
      "▁রাজ্যের": 6029,
      "▁জামায়াতের": 6030,
      "▁প্রবাস": 6031,
      "▁ক্ষোভ": 6032,
      "▁ধানমন্ড": 6033,
      "দারের": 6034,
      "কর্মী": 6035,
      "▁লুক": 6036,
      "▁রাজনীতির": 6037,
      "▁সংগ্রাম": 6038,
      "▁তাঁর।": 6039,
      "▁চলমান": 6040,
      "▁০": 6041,
      "▁বইয়ের": 6042,
      "▁তল": 6043,
      "▁লম্বা": 6044,
      "েমে": 6045,
      "d)": 6046,
      "▁পাঁচজন": 6047,
      "▁জাফর": 6048,
      "চালিত": 6049,
      "▁নারায়ণগঞ্জ": 6050,
      "▁নিউইয়র্ক": 6051,
      "▁রাঙ": 6052,
      "কমিশনার": 6053,
      "মাত্রা": 6054,
      "হাদ": 6055,
      "▁করব।": 6056,
      "▁কর্মরত": 6057,
      "▁নিঃ": 6058,
      "▁মা-বা": 6059,
      "োম": 6060,
      "▁সত্ত্বেও": 6061,
      "২০০": 6062,
      "▁অসম": 6063,
      "▁তোল": 6064,
      "▁ভয়াবহ": 6065,
      "্মী": 6066,
      "▁আরিফ": 6067,
      "নীতিক": 6068,
      "▁অপারে": 6069,
      "পূ": 6070,
      "▁বক্তারা": 6071,
      "▁ঊর্ধ্বতন": 6072,
      "▁চট্টগ্রামে": 6073,
      "▁নিয়ন্ত্র": 6074,
      "রিদ্র": 6075,
      "স্টে": 6076,
      "▁কুষ্টি": 6077,
      "▁টের": 6078,
      "থে": 6079,
      "▁অধিবেশ": 6080,
      "ৎস্য": 6081,
      "▁গাড়িতে": 6082,
      "জাহান": 6083,
      "▁টেকনা": 6084,
      "▁বিস্তারিত": 6085,
      "্তার": 6086,
      "ভূতি": 6087,
      "স্তোরা": 6088,
      "্ভা": 6089,
      "▁হকের": 6090,
      "স্তোরাঁ": 6091,
      "▁করা,": 6092,
      "▁ছুটি": 6093,
      "▁পাবেন": 6094,
      "▁দেওয়ায়": 6095,
      "ুদের": 6096,
      "▁আলম,": 6097,
      "▁হামিদ": 6098,
      "▁জাকির": 6099,
      "▁you": 6100,
      "▁ট্রাস্ট": 6101,
      "▁ভিত্তি": 6102,
      "▁দলটির": 6103,
      "▁চরিত্রে": 6104,
      "▁সপ্তাহের": 6105,
      "a)": 6106,
      "পাত্র": 6107,
      "▁ওবায়দুল": 6108,
      "▁ভ্যান": 6109,
      "▁বাঘ": 6110,
      "▁যু": 6111,
      "▁ক্রিস": 6112,
      "ফোনের": 6113,
      "▁বৈধ": 6114,
      "▁অভিযানে": 6115,
      "টে।": 6116,
      "▁পরিস্থিতির": 6117,
      "▁মেহে": 6118,
      "▁হাফিজ": 6119,
      "▁বুক": 6120,
      "▁(আ": 6121,
      "▁শিক্ষার": 6122,
      "▁সিঙ্গ": 6123,
      "গণ": 6124,
      "▁‘এক": 6125,
      "▁বাসে": 6126,
      "▁আশরাফ": 6127,
      "▁ত্ব": 6128,
      "বাড়িয়া": 6129,
      "ডব্লিউ": 6130,
      "▁ক্ষুদ্র": 6131,
      "her": 6132,
      "▁জাতির": 6133,
      "▁(ই": 6134,
      "▁ছাড়াই": 6135,
      "▁উল্লাহ": 6136,
      "▁চোট": 6137,
      "▁অঞ্চলে": 6138,
      "▁ধর্ষণ": 6139,
      "▁ব্যবসায়ীদের": 6140,
      "▁পারেন,": 6141,
      "▁কমপক্ষে": 6142,
      "টিও": 6143,
      "▁আবেদনের": 6144,
      "ঙ্ঘ": 6145,
      "▁দরজা": 6146,
      "ফিউ": 6147,
      "▁৪৮": 6148,
      "▁জেলে": 6149,
      "▁সাফল্যের": 6150,
      "▁দেখি": 6151,
      "▁ক্ষে": 6152,
      "চট্টগ্রাম": 6153,
      "মুনা": 6154,
      "▁পলাত": 6155,
      "▁ভবিষ্যৎ": 6156,
      "▁২০০৮": 6157,
      "▁জঙ্গ": 6158,
      "▁জ্বালানি": 6159,
      "▁চত্ব": 6160,
      "▁ফজল": 6161,
      "▁শরীরে": 6162,
      "শ্রমিক": 6163,
      "ফাইন": 6164,
      "াজা": 6165,
      "▁যাচ্ছে,": 6166,
      "▁বানিয়ে": 6167,
      "▁পাথর": 6168,
      "▁উঁচ": 6169,
      "▁অধিদপ্তর": 6170,
      "▁হস্তান্তর": 6171,
      "▁আস্ত": 6172,
      "▁আঙ": 6173,
      "▁প্রাঙ্গ": 6174,
      "▁প্লে": 6175,
      "▁স্টেশন": 6176,
      "▁সালমান": 6177,
      "▁তাকিয়ে": 6178,
      "▁পাবলিক": 6179,
      "দাল": 6180,
      "▁গ্রামীণ": 6181,
      "▁গেল,": 6182,
      "▁স্বতন্ত্র": 6183,
      "টা।": 6184,
      "▁রাসেল": 6185,
      "▁আবহা": 6186,
      "▁বিরাট": 6187,
      "▁কিনতে": 6188,
      "ময়ে": 6189,
      "লা,": 6190,
      "▁জন্মদিন": 6191,
      "▁টেলিভিশন": 6192,
      "▁ইউএনও": 6193,
      "▁পার্ব": 6194,
      "▁প্রায়ই": 6195,
      "▁শরীরের": 6196,
      "▁ঘু": 6197,
      "▁হুমায়": 6198,
      "▁অসহ": 6199,
      "▁নেট": 6200,
      "▁শ্রীলঙ্কা": 6201,
      "▁নির্মিত": 6202,
      "▁চ্যাম্পিয়নস": 6203,
      "▁গাছের": 6204,
      "▁দিয়েছিলেন": 6205,
      "▁জাহিদ": 6206,
      "ুনে": 6207,
      "ওয়্যার": 6208,
      "▁অপরাধের": 6209,
      "▁অঞ্চল": 6210,
      "▁ভর্ত": 6211,
      "▁বাজেট": 6212,
      "▁রণ": 6213,
      "িস্তান": 6214,
      "▁পর্যন্ত।": 6215,
      "▁পণ্যের": 6216,
      "▁উন্নতি": 6217,
      "▁ফাঁস": 6218,
      "▁সৃজন": 6219,
      "▁নিষেধাজ্ঞা": 6220,
      "▁ডুবে": 6221,
      "▁শ্যাম": 6222,
      "▁করেছিল।": 6223,
      "ক্রমে": 6224,
      "▁মুক্তির": 6225,
      "▁মর্গে": 6226,
      "▁ওসমান": 6227,
      "▁বলে।": 6228,
      "▁লঙ্ঘ": 6229,
      "▁শিক্ষার্থীর": 6230,
      "িনিয়র": 6231,
      "▁হিল": 6232,
      "▁উদ্‌": 6233,
      "▁চক": 6234,
      "▁গবেষণ": 6235,
      "▁ভেসে": 6236,
      "বাংলাদেশের": 6237,
      "▁ঝুল": 6238,
      "▁পায়।": 6239,
      "▁এবারও": 6240,
      "▁নেতৃত্বাধীন": 6241,
      "▁গণিত": 6242,
      "▁আফ্রিকার": 6243,
      "▁হোটেলে": 6244,
      "▁পত্রিকা": 6245,
      "▁যাক": 6246,
      "াঁচ": 6247,
      "▁স্টে": 6248,
      "▁তাস": 6249,
      "ডির": 6250,
      "un": 6251,
      "▁দত্ত": 6252,
      "ির্দিষ্ট": 6253,
      "▁পৃষ্ঠ": 6254,
      "▁লবণ": 6255,
      "▁for": 6256,
      "▁‘এই": 6257,
      "ভারত": 6258,
      "▁নাক": 6259,
      "▁পর্দ": 6260,
      "য়োজনে": 6261,
      "▁কের": 6262,
      "ঙ্ক্ষ": 6263,
      "st": 6264,
      "বিজ্ঞান": 6265,
      "▁রাষ্ট্রীয়": 6266,
      "▁সম্মাননা": 6267,
      "▁সিএন": 6268,
      "▁আমলে": 6269,
      "▁ব্যবধানে": 6270,
      "▁জ্ঞান": 6271,
      "▁চুরি": 6272,
      "▁‘র": 6273,
      "▁লিগের": 6274,
      "▁আপাত": 6275,
      "▁চায়।": 6276,
      "▁আসবে": 6277,
      "্পণ": 6278,
      "▁তত্ত্বাবধায়ক": 6279,
      "▁প্যার": 6280,
      "▁চিঠ": 6281,
      "▁রেস্তোরাঁ": 6282,
      "▁দুর্গ": 6283,
      "নামা": 6284,
      "▁জয়ী": 6285,
      "▁কলেজ,": 6286,
      "ীক্ষা": 6287,
      "ৃক্ত": 6288,
      "▁পার্থ": 6289,
      "▁সাতটি": 6290,
      "▁যুক্তরাষ্ট্রে": 6291,
      "▁বাড়াতে": 6292,
      "▁st": 6293,
      "▁ভীষণ": 6294,
      "▁তখনই": 6295,
      "b)": 6296,
      "ম।": 6297,
      "▁হোক,": 6298,
      "▁স্বল্প": 6299,
      "▁উচ্চবিদ্যালয়": 6300,
      "▁বিক্রির": 6301,
      "▁মার্কে": 6302,
      "▁অটোরিকশা": 6303,
      "ডা": 6304,
      "▁মিরপুর": 6305,
      "c)": 6306,
      "োপচার": 6307,
      "বিনিময়": 6308,
      "▁স্যার": 6309,
      "মালা": 6310,
      "্যালো": 6311,
      "র্নি": 6312,
      "শ্চি": 6313,
      "▁যোগাযোগের": 6314,
      "ভেন": 6315,
      "োনাল্ড": 6316,
      "।’\n": 6317,
      "▁বহন": 6318,
      "▁ছাত্রলীগ": 6319,
      "িনিয়ার": 6320,
      "▁আলী,": 6321,
      "▁রাতের": 6322,
      "▁মুজিবুর": 6323,
      "▁অসাধারণ": 6324,
      "▁হারে": 6325,
      "▁জানেন": 6326,
      "▁সমর্থকদের": 6327,
      "▁এসেছেন": 6328,
      "▁ছোট্ট": 6329,
      "▁ফেব্রুয়ার": 6330,
      "আমি": 6331,
      "টিয়া": 6332,
      "্ভাব্য": 6333,
      "▁মেলার": 6334,
      "▁বিপ্ল": 6335,
      "হতি": 6336,
      "▁ফুটবলার": 6337,
      "▁স্বাধীনতার": 6338,
      "▁প্রকাশের": 6339,
      "▁নয়টার": 6340,
      "ওয়ার্ড": 6341,
      "▁আসামিদের": 6342,
      "ংকর": 6343,
      "▁হর": 6344,
      "▁যাঁদের": 6345,
      "▁রাজস্ব": 6346,
      "-ভ": 6347,
      "▁বক্স": 6348,
      "ীদুল": 6349,
      "▁M": 6350,
      "▁মোহাম": 6351,
      "পত্রে": 6352,
      "▁মূ": 6353,
      "▁চেত": 6354,
      "▁টাক": 6355,
      "▁পারফরম্যান": 6356,
      "টাতে": 6357,
      "শালী": 6358,
      "▁উন্নয়নে": 6359,
      "▁ইসল": 6360,
      "▁পড়েন": 6361,
      "▁কথায়": 6362,
      "ly": 6363,
      "▁অবস্থার": 6364,
      "▁মুখপাত্র": 6365,
      "▁ইব্র": 6366,
      "▁মৎস্য": 6367,
      "সিসির": 6368,
      "▁কিছুক্ষণ": 6369,
      "▁গলা": 6370,
      "▁শিরোপা": 6371,
      "ম,": 6372,
      "▁খুঁজ": 6373,
      "▁ইসলামী": 6374,
      "▁কর্তব্য": 6375,
      "▁ওয়েবসাইট": 6376,
      "▁জানিয়েছে।": 6377,
      "▁ইয়াবা": 6378,
      "▁ঢে": 6379,
      "োরে": 6380,
      "▁রীতি": 6381,
      "▁পরিবর্তনের": 6382,
      "▁উপক": 6383,
      "▁দুর্নীতির": 6384,
      "▁পারছে": 6385,
      "সেন্স": 6386,
      "▁সীমা": 6387,
      "▁শুনতে": 6388,
      "рж┐рж": 6389,
      "▁মামলাটি": 6390,
      "▁ব্রাহ্মণ": 6391,
      "▁বঙ্গবন্ধুর": 6392,
      "▁উন্মুক্ত": 6393,
      "▁গ্রামে।": 6394,
      "▁পশ্চিমবঙ্গ": 6395,
      "▁দিবাগত": 6396,
      "▁স্মারক": 6397,
      "▁যাতায়": 6398,
      "▁বগুড়ার": 6399,
      "▁পারেনি": 6400,
      "ন্তরীণ": 6401,
      "▁পার্ল": 6402,
      "▁দপ্তর": 6403,
      "▁শোক": 6404,
      "ভূমি": 6405,
      "▁ময়মনসিংহ": 6406,
      "▁যুবক": 6407,
      "▁প্রত্যেক": 6408,
      "▁বিশিষ্ট": 6409,
      "▁বিচারের": 6410,
      "▁এলাকাবাসী": 6411,
      "▁গার্ড": 6412,
      "▁কাত": 6413,
      "▁বাড়ছে।": 6414,
      "▁তহবিল": 6415,
      "জাদ": 6416,
      "ww": 6417,
      "▁কর্মসং": 6418,
      "প্রশ্ন:": 6419,
      "ভীবাজার": 6420,
      "▁পরিচ": 6421,
      "▁অস্ত্রোপচার": 6422,
      "ভায়": 6423,
      "▁বিশ্লেষণ": 6424,
      "পতির": 6425,
      "বরের": 6426,
      "মহ": 6427,
      "▁ইমরান": 6428,
      "ন্দর": 6429,
      "▁আটটার": 6430,
      "▁অশ": 6431,
      "▁ইংল্যান্ডের": 6432,
      "▁গ্রন্থ": 6433,
      "েক্টর": 6434,
      "্যুত": 6435,
      "য়ালি": 6436,
      "▁লুট": 6437,
      "াহরণ": 6438,
      "▁উৎসবে": 6439,
      "▁অতিথির": 6440,
      "▁রাশিয়ার": 6441,
      "▁বাঙাল": 6442,
      "▁হত্যাকাণ্ড": 6443,
      "▁সুলতানা": 6444,
      "কালের": 6445,
      "▁সম্ভাব্য": 6446,
      "বর্ষ": 6447,
      "-উ": 6448,
      "▁নান": 6449,
      "▁জহির": 6450,
      "-সমর্থিত": 6451,
      "ত্বের": 6452,
      "▁প্রশংসা": 6453,
      "▁are": 6454,
      "▁সেমি": 6455,
      "▁অবসর": 6456,
      "টা,": 6457,
      "-দ": 6458,
      "গল": 6459,
      "▁চলাচ": 6460,
      "▁সম্পৃক্ত": 6461,
      "▁কিউ": 6462,
      "▁কর্মীদের": 6463,
      "▁হালকা": 6464,
      "▁কাছাকা": 6465,
      "▁অবাক": 6466,
      "▁অভিনেত্রী": 6467,
      "নিহত": 6468,
      "বিন": 6469,
      "▁দিয়ে।": 6470,
      "▁বিচারিক": 6471,
      "▁পুনর্ব": 6472,
      "▁কর্মীরা": 6473,
      "্রেট": 6474,
      "ation": 6475,
      "▁সম্প্রদ": 6476,
      "▁গৌর": 6477,
      "▁কুপিয়ে": 6478,
      "▁কেন,": 6479,
      "▁দৃষ্ট": 6480,
      "▁বৈশাখ": 6481,
      "▁নিবন্ধ": 6482,
      "েন্ডার": 6483,
      "জিৎ": 6484,
      "▁পাবে": 6485,
      "▁আল্লাহ": 6486,
      "▁আপনাদের": 6487,
      "▁উপভোগ": 6488,
      "সিল": 6489,
      "▁নিন।": 6490,
      "▁শিক": 6491,
      "▁সাইফ": 6492,
      "▁কাজটি": 6493,
      "ওয়াল": 6494,
      "রাফুল": 6495,
      "▁কমিয়ে": 6496,
      "▁ফট": 6497,
      "▁হারুন": 6498,
      "▁মাইক্রো": 6499,
      "▁মোশাররফ": 6500,
      "▁C": 6501,
      "▁রাজ্জাক": 6502,
      "▁৩৯": 6503,
      "▁প্রাপ্ত": 6504,
      "▁খাবারের": 6505,
      "িদ্র": 6506,
      "চ্ছন্ন": 6507,
      "▁যুক্তি": 6508,
      "তলী": 6509,
      "▁গেলেন": 6510,
      "▁লিখেছেন,": 6511,
      "▁অভ্যন্তরীণ": 6512,
      "োজাহ": 6513,
      "▁নিশ্চয়ই": 6514,
      "্লো": 6515,
      "▁যুক্তরাজ্যের": 6516,
      "খাস্ত": 6517,
      "▁পদত্যাগ": 6518,
      "▁ঠাকুর": 6519,
      "শিং": 6520,
      "▁প্রয়োজনে": 6521,
      "▁জাগ": 6522,
      "▁থাকছে": 6523,
      "▁ইলেক": 6524,
      "▁ঘণ্ট": 6525,
      "▁অনলাইন": 6526,
      "▁সৃজনশীল": 6527,
      ".com": 6528,
      "▁ব্যবহৃত": 6529,
      "চাপ": 6530,
      "▁প্রিমিয়ার": 6531,
      "▁ডট": 6532,
      "▁আনু": 6533,
      "▁পরপরই": 6534,
      "▁ধা": 6535,
      "▁বৃষ্টির": 6536,
      "▁টুইটার": 6537,
      "▁রক্ষণ": 6538,
      "▁ধারায়": 6539,
      "▁ফেরদৌ": 6540,
      "▁হত্যাকাণ্ডের": 6541,
      "▁ষড়": 6542,
      "▁প্রতিষ্ঠিত": 6543,
      "▁দেশি": 6544,
      "ুল্লাহ": 6545,
      "▁ইংলিশ": 6546,
      "▁উদাহরণ": 6547,
      "▁পর্যবেক্ষণ": 6548,
      "এমই": 6549,
      "▁কাহ": 6550,
      "▁প্রতিক্রিয়া": 6551,
      "▁চালায়।": 6552,
      "ুদণ্ড": 6553,
      "▁কবর": 6554,
      "▁ময়নাতদন্তের": 6555,
      "ুটি": 6556,
      "▁বর্জ": 6557,
      "▁পারেননি": 6558,
      "▁সাগর": 6559,
      "▁শ্রীলঙ্কার": 6560,
      "▁সেম": 6561,
      "▁মাংস": 6562,
      "োগ্রাম": 6563,
      "▁স্কোর": 6564,
      "যাপন": 6565,
      "▁পৌরসভা": 6566,
      "▁মীর": 6567,
      "▁গল": 6568,
      "▁বিজ্ঞপ্তি": 6569,
      "।স": 6570,
      "▁বাইরের": 6571,
      "▁দিয়েছেন,": 6572,
      "▁বেড়েছে": 6573,
      "াও": 6574,
      "▁ইউসু": 6575,
      "দারি": 6576,
      "▁ত্রাণ": 6577,
      "▁চর্": 6578,
      "▁ঐক": 6579,
      "▁ইল": 6580,
      "▁ধার্য": 6581,
      "▁প্রচণ্ড": 6582,
      "▁আপনারা": 6583,
      "চীন": 6584,
      "সংখ্যক": 6585,
      "▁বাসার": 6586,
      "ড়ানো": 6587,
      "▁শাসন": 6588,
      "▁শ্রেণি": 6589,
      "▁on": 6590,
      "▁হাতি": 6591,
      "▁নিষ্প": 6592,
      "▁পার্লামেন্ট": 6593,
      "▁কমিউনিটি": 6594,
      "▁চত্বরে": 6595,
      "▁বিজ্ঞপ্তি।\n": 6596,
      "।অ": 6597,
      "রাত": 6598,
      "▁হয়েছে।’": 6599,
      "সংযোগ": 6600,
      "▁ডলারের": 6601,
      "্মি": 6602,
      "▁আলাপ": 6603,
      "াল্টি": 6604,
      "▁হাসি": 6605,
      "▁শিগগিরই": 6606,
      "▁ঘটনাটি": 6607,
      "▁মোর": 6608,
      "▁তারপরও": 6609,
      "-মে": 6610,
      "্যানে": 6611,
      "ীবন": 6612,
      "বক": 6613,
      "▁নীর": 6614,
      "▁ভূঁইয়া": 6615,
      "▁শিক্ষকের": 6616,
      "াহিম": 6617,
      "▁দেল": 6618,
      "▁তদন্তের": 6619,
      "িয়েটার": 6620,
      "▁দাশ": 6621,
      "▁দীপ": 6622,
      "▁was": 6623,
      "▁ঢাক": 6624,
      "▁স্যাম": 6625,
      "▁স্বর্ণ": 6626,
      "▁পররাষ্ট্রমন্ত্রী": 6627,
      "▁তল্লা": 6628,
      "▁পারবে।": 6629,
      "যে": 6630,
      "▁ফয়": 6631,
      "▁করতেই": 6632,
      "▁যাচ্ছেন": 6633,
      "▁দ্বন্দ্ব": 6634,
      "▁৫৫": 6635,
      "▁ঠিকানা": 6636,
      "▁উদ্বেগ": 6637,
      "ক্ষদর্শী": 6638,
      "▁ডিম": 6639,
      "▁শুভেচ্ছা": 6640,
      "▁একদল": 6641,
      "▁ক্লিন": 6642,
      "▁মতামত": 6643,
      "▁নাশক": 6644,
      "i)": 6645,
      "▁অনুষ": 6646,
      "পরে": 6647,
      "▁চাপা": 6648,
      "▁উত্তরা": 6649,
      "▁তৎকালীন": 6650,
      "▁প্রেসক্লাবের": 6651,
      "কারীর": 6652,
      "ার,": 6653,
      "▁৪৩": 6654,
      "▁কোর্ট": 6655,
      "ুণের": 6656,
      "মল": 6657,
      "▁রিটার": 6658,
      "াই।": 6659,
      "▁মূল্যে": 6660,
      "▁উদ্দীন": 6661,
      "▁ইঞ্জিনিয়ার": 6662,
      "▁নেপ": 6663,
      "াস্ত্র": 6664,
      "২১": 6665,
      "▁লাইসেন্স": 6666,
      "পিতে": 6667,
      "▁বগুড়া": 6668,
      "▁ভাষণ": 6669,
      "▁উত্তোল": 6670,
      "ন্ট": 6671,
      "▁কমান্ডার": 6672,
      "-কা": 6673,
      "▁মিয়ানমার": 6674,
      "▁ছিট": 6675,
      "▁কায়": 6676,
      "▁উচ্ছেদ": 6677,
      "▁সাতক্ষ": 6678,
      "▁কাঁদ": 6679,
      "▁গোপাল": 6680,
      "▁আসবে।": 6681,
      "দায়িক": 6682,
      "▁মাস্টার": 6683,
      "আরও": 6684,
      "▁বয়ে": 6685,
      "্নিং": 6686,
      "▁স্ট্রাই": 6687,
      "▁সুমন": 6688,
      "▁থেমে": 6689,
      "▁শহীদুল": 6690,
      "▁be": 6691,
      "▁সফট": 6692,
      "▁রিস": 6693,
      "▁ইলিশ": 6694,
      "চন": 6695,
      "▁শ্ব": 6696,
      "▁আশরাফুল": 6697,
      "▁একু": 6698,
      "বিত্র": 6699,
      "কেলে": 6700,
      "▁ডাল": 6701,
      "▁বলেছেন।": 6702,
      "▁সিনিয়র": 6703,
      "আইয়ের": 6704,
      "▁প্রিন": 6705,
      "▁মাহফ": 6706,
      "▁চাকমা": 6707,
      "গোল": 6708,
      "▁হানি": 6709,
      "ক্ষিপ্ত": 6710,
      "▁ইঙ্গ": 6711,
      "▁অগ্রগতি": 6712,
      "▁রোধ": 6713,
      "ংশ্লিষ্ট": 6714,
      "▁যাত্রীদের": 6715,
      "▁অবকাঠ": 6716,
      "বাজ": 6717,
      "-জ": 6718,
      "▁ম্যাজ": 6719,
      "▁মন্ত্রিস": 6720,
      "ব্বির": 6721,
      "মনির": 6722,
      "▁দর্শকদের": 6723,
      "▁সম্প্রদায়ের": 6724,
      "ter": 6725,
      "▁(৬": 6726,
      "ith": 6727,
      "কী": 6728,
      "▁৪৪": 6729,
      "▁মেয়েকে": 6730,
      "ানিক": 6731,
      "▁রাশিয়া": 6732,
      "পরিচালক": 6733,
      "চারীদের": 6734,
      "▁ব্যাগ": 6735,
      "-১৫": 6736,
      "▁চলে।": 6737,
      "▁অসংখ্য": 6738,
      "▁বিষয়ের": 6739,
      "▁একেক": 6740,
      "▁অনুসারে": 6741,
      "িউদ্দিন": 6742,
      "▁নিচের": 6743,
      "▁দিয়েছিলেন।": 6744,
      "▁লিমিটেডের": 6745,
      "▁প্রয়": 6746,
      "▁৪০০": 6747,
      "লেন।": 6748,
      "▁সেনাবাহিনীর": 6749,
      "▁রোহিঙ্গাদের": 6750,
      "▁রয়েছেন": 6751,
      "▁অবল": 6752,
      "▁আসাদুজ্জামান": 6753,
      "▁অর্থবছরে": 6754,
      "▁অন্তর": 6755,
      "▁রিপ": 6756,
      "কেয়া": 6757,
      "ীড়": 6758,
      "▁ব্যাল": 6759,
      "▁শ্রী": 6760,
      "▁ক্যাল": 6761,
      "▁উত্তেজ": 6762,
      "শাহ": 6763,
      "▁ন্যাশনাল": 6764,
      "▁সিস্ট": 6765,
      "▁৭৫": 6766,
      "▁প্রশ্নোত্তর": 6767,
      "টুয়া": 6768,
      "▁উচ্চবিদ্যালয়ের": 6769,
      "ag": 6770,
      "▁বরাবর": 6771,
      "শিক্ষা": 6772,
      "পল": 6773,
      "ডেমি": 6774,
      "▁হলেই": 6775,
      "▁ছুঁ": 6776,
      "▁‘ন": 6777,
      "রাতে": 6778,
      "সেবা": 6779,
      "্যাপ্ত": 6780,
      "▁দূরের": 6781,
      "▁কারখানায়": 6782,
      "ৈশ": 6783,
      "▁শরী": 6784,
      "▁প্রতিযোগিতার": 6785,
      "▁হিম": 6786,
      "▁আটটি": 6787,
      "▁সশ": 6788,
      "▁নন।": 6789,
      "▁ছাড়িয়ে": 6790,
      "ঘরে": 6791,
      "▁মণ": 6792,
      "াকু": 6793,
      "▁উত্থ": 6794,
      "▁রবীন্দ্রনাথ": 6795,
      "▁ককট": 6796,
      "▁চেম্ব": 6797,
      "▁উইল": 6798,
      "সিটি": 6799,
      "▁ঘটনাস্থল": 6800,
      "▁ওজন": 6801,
      "ld": 6802,
      "▁নায়": 6803,
      "▁নম্বরে": 6804,
      "▁হোয়া": 6805,
      "▁আঘ": 6806,
      "▁রান।": 6807,
      "▁সার্বিক": 6808,
      "▁বেকার": 6809,
      "▁এনামুল": 6810,
      "▁পরিস্থিতিতে": 6811,
      "▁শোন": 6812,
      "▁শট": 6813,
      "প্রযুক্তি": 6814,
      "▁কক্সবাজারের": 6815,
      "▁কলকাতার": 6816,
      "শায়": 6817,
      "▁আড্ড": 6818,
      "▁তা-ই": 6819,
      "ুলি": 6820,
      "▁1": 6821,
      "ওয়াত": 6822,
      "▁জুটি": 6823,
      "▁মতবিনিময়": 6824,
      "▁মাতৃ": 6825,
      "▁নির্মাতা": 6826,
      "▁আস্থা": 6827,
      "▁দাল": 6828,
      "▁দেশগুলোর": 6829,
      "▁অনলাইনে": 6830,
      "বিবাহ": 6831,
      "▁বেড়া": 6832,
      "▁‘ভ": 6833,
      "▁একাডেমির": 6834,
      "▁ইচ্ছে": 6835,
      "▁তদন্তে": 6836,
      "▁মহাসড়কে": 6837,
      "▁দম": 6838,
      "িয়া।": 6839,
      "▁স্বামীর": 6840,
      "দিক": 6841,
      "▁পুষ": 6842,
      "বিলা": 6843,
      "েননি।": 6844,
      "▁চেয়েও": 6845,
      "▁স্থাপনা": 6846,
      "▁প্রশ্নে": 6847,
      "▁আমন্ত্রণ": 6848,
      "▁অপ্র": 6849,
      "▁থিয়েটার": 6850,
      "▁জিজ্ঞেস": 6851,
      "▁আবাহ": 6852,
      "▁ইতাল": 6853,
      "▁অনুসরণ": 6854,
      "বিন্দ": 6855,
      "▁গর্ত": 6856,
      "▁ইতিহাসে": 6857,
      "▁অগ্নি": 6858,
      "▁গ্যাসের": 6859,
      "▁নিচ": 6860,
      "▁যাচ্ছেন।": 6861,
      "▁যানজট": 6862,
      "▁ক্ষুব্ধ": 6863,
      "▁ভাষ্য,": 6864,
      "▁খালি": 6865,
      "▁সালাম": 6866,
      "▁(৫": 6867,
      "▁বিজেপির": 6868,
      "▁বী": 6869,
      "▁সূচক": 6870,
      "-সু": 6871,
      "▁ব্যবসায়ীরা": 6872,
      "▁বোর": 6873,
      "▁নাটকের": 6874,
      "▁দুর্ঘটনার": 6875,
      "▁হলের": 6876,
      "sw": 6877,
      "▁সেবার": 6878,
      "পাড়ার": 6879,
      "াম্প": 6880,
      "▁একাত্ত": 6881,
      "▁পর্ষ": 6882,
      "▁ডোনাল্ড": 6883,
      "▁রহস্য": 6884,
      "▁বিখ্যাত": 6885,
      "▁উড়োজাহ": 6886,
      "উদ্দীন": 6887,
      "্যাড": 6888,
      "▁শপথ": 6889,
      "op": 6890,
      "▁শিল্পকলা": 6891,
      "্যোগ": 6892,
      "্বাবু": 6893,
      "বদ": 6894,
      "▁আনুষ্ঠানিকভাবে": 6895,
      "াতেই": 6896,
      "▁নায়ক": 6897,
      "▁সার্ভিসের": 6898,
      "▁প্রবণ": 6899,
      "▁গোলের": 6900,
      "▁ম্যাজিস্ট": 6901,
      "াকর": 6902,
      "▁স্বজন": 6903,
      "▁কেনার": 6904,
      "▁জরুরি।": 6905,
      "কেলের": 6906,
      "ংয়ের": 6907,
      "▁১১টায়": 6908,
      "ব্যাং": 6909,
      "▁গেম": 6910,
      "▁অপসারণ": 6911,
      "প্রত্য": 6912,
      "▁এমনি": 6913,
      "▁স্ত্রীর": 6914,
      "▁ইয়াস": 6915,
      "ve": 6916,
      "▁আয়োজনের": 6917,
      "▁উল্লেখযোগ্য": 6918,
      "▁তৌ": 6919,
      "িকো": 6920,
      "▁ধরার": 6921,
      "▁ইউরোপীয়": 6922,
      "▁আহমেদের": 6923,
      "▁পরিসং": 6924,
      "▁উঁচু": 6925,
      "▁শাক": 6926,
      "▁আরোপ": 6927,
      "▁পারি।": 6928,
      "▁গুলিবিদ্ধ": 6929,
      "▁ভাবতে": 6930,
      "▁না!": 6931,
      "▁অ্যাসোসিয়েশন": 6932,
      "্বস্ত": 6933,
      "সাদ": 6934,
      "▁ট্রান্স": 6935,
      "িন্দা": 6936,
      "েনি": 6937,
      "▁বিশ্বে": 6938,
      "▁ভারী": 6939,
      "▁পূর্বা": 6940,
      "▁ঘনিষ্ঠ": 6941,
      "ান্দি": 6942,
      "▁চালাতে": 6943,
      "▁বিপর্য": 6944,
      "শক্তি": 6945,
      "▁আপাতত": 6946,
      "▁যাদের": 6947,
      "▁৪১": 6948,
      "▁নেইমার": 6949,
      "ত্ত্ব": 6950,
      "▁তরুণদের": 6951,
      "▁অংশের": 6952,
      "▁প্রজন্মের": 6953,
      "▁বিদ্রোহী": 6954,
      "▁সেমিফাইন": 6955,
      "▁হু": 6956,
      "সেরা": 6957,
      "▁কংগ্রেসের": 6958,
      "তী": 6959,
      "▁বৈষ": 6960,
      "ঞ্চলের": 6961,
      "▁নৃত্য": 6962,
      "াইভ": 6963,
      "পত্রের": 6964,
      "swer": 6965,
      "শিশ": 6966,
      "▁নোটিশ": 6967,
      "▁কাই": 6968,
      "▁আমান": 6969,
      "ig": 6970,
      "বাদে": 6971,
      "▁স্বেচ্ছাসে": 6972,
      "▁মৌলভীবাজার": 6973,
      "▁বিদ্যুতের": 6974,
      "সকাল": 6975,
      "▁বিবরণ": 6976,
      "্কর": 6977,
      "▁১৯৬": 6978,
      "▁পেট্রল": 6979,
      "▁অষ্ট": 6980,
      "▁তথ্যের": 6981,
      "ওয়ের": 6982,
      "ীর্থ": 6983,
      "▁ডিএসই": 6984,
      "▁১০টায়": 6985,
      "▁ঝাঁ": 6986,
      "▁১০টা": 6987,
      "▁মুগ্ধ": 6988,
      "▁র্যা": 6989,
      "▁জানার": 6990,
      "যোগাযোগ": 6991,
      "▁মুম্ব": 6992,
      "▁সম্ভব।": 6993,
      "গি": 6994,
      "কাতে": 6995,
      "ীনের": 6996,
      "▁(র": 6997,
      "▁ষড়যন্ত্র": 6998,
      "▁ইঙ্গিত": 6999,
      "▁আর্": 7000,
      "▁ইমাম": 7001,
      "▁সম্ভবত": 7002,
      "▁ওব": 7003,
      "দিয়া": 7004,
      "▁চালানোর": 7005,
      "▁লতি": 7006,
      "মার্": 7007,
      "প্রত": 7008,
      "▁তরুণের": 7009,
      "▁দেবেন।": 7010,
      "▁টেন": 7011,
      "▁নামিয়ে": 7012,
      "▁ফিফ": 7013,
      "▁সভার": 7014,
      "▁মোড়ে": 7015,
      "▁নেটওয়ার": 7016,
      "▁প্রদ": 7017,
      "▁একাডেমি": 7018,
      "▁চিন": 7019,
      "কতা": 7020,
      "▁আদিবাস": 7021,
      "▁অফিসে": 7022,
      "পক্ষে": 7023,
      "াড়": 7024,
      "কন": 7025,
      "▁আশ্বাস": 7026,
      "▁নিরপেক্ষ": 7027,
      "▁মাটির": 7028,
      "▁নাছ": 7029,
      "▁জোগ": 7030,
      "▁সংরক্ষিত": 7031,
      "▁ফেরি": 7032,
      "▁আখতার": 7033,
      "▁সদরের": 7034,
      "▁ঝুঁকিপূর্ণ": 7035,
      "▁চুক্তির": 7036,
      "▁ছুড়ে": 7037,
      "▁কথাও": 7038,
      "্ল্ড": 7039,
      "দি।": 7040,
      "▁দুদকের": 7041,
      "▁কল্প": 7042,
      "চ্ছু": 7043,
      "▁হক।": 7044,
      "▁সাঈদ": 7045,
      "▁মাঝেম": 7046,
      "▁রোগী": 7047,
      "▁অ্যাকা": 7048,
      "▁প্রত্যাশা": 7049,
      "ওল": 7050,
      "▁বন্ধুদের": 7051,
      "▁প্রতিষ্ঠাতা": 7052,
      "▁কোর্টের": 7053,
      "▁বিজেপি": 7054,
      "▁অপেক্ষায়": 7055,
      "াবির": 7056,
      "▁মরি": 7057,
      "তদন্ত": 7058,
      "▁প্রো": 7059,
      "▁বাণিজ্যিক": 7060,
      "পুরুষ": 7061,
      "▁থাকবেন": 7062,
      "▁কবে": 7063,
      "▁গোটা": 7064,
      "▁পাচ্ছেন": 7065,
      "▁ইউসুফ": 7066,
      "▁লাগানো": 7067,
      "▁মৃ": 7068,
      "▁অন্যের": 7069,
      "োঁয়া": 7070,
      "▁স্লোগান": 7071,
      "ন্যাস": 7072,
      "োজন": 7073,
      "▁পিক": 7074,
      "মুখী": 7075,
      "▁দোয়া": 7076,
      "▁তৎপরতা": 7077,
      "▁অভিব": 7078,
      "▁জয়ন": 7079,
      "▁পবিত্র": 7080,
      "▁ভাষার": 7081,
      "▁চলাকালে": 7082,
      "ঘ.": 7083,
      "ভেন্ট": 7084,
      "িস্ট্র": 7085,
      "াইদ": 7086,
      "্যায়ন": 7087,
      "▁জাহান": 7088,
      "▁ঠান্ড": 7089,
      "ানায়": 7090,
      "মাস": 7091,
      "▁সম্পর্কের": 7092,
      "▁৪৬": 7093,
      "▁গলায়": 7094,
      "▁টাইমস": 7095,
      "▁মিনিটের": 7096,
      "নাট": 7097,
      "স্থায়": 7098,
      "িজীব": 7099,
      "▁উজ্জ্বল": 7100,
      "▁মজুমদার": 7101,
      "▁মোদি": 7102,
      "▁মানবিক": 7103,
      "৩০": 7104,
      "ডিং": 7105,
      "▁তাৎক্ষণ": 7106,
      "▁বংশ": 7107,
      "▁জেত": 7108,
      "▁খাওয়ার": 7109,
      "▁হেঁটে": 7110,
      "▁বহিষ্কার": 7111,
      "▁হোসেনকে": 7112,
      "▁গৃহবধ": 7113,
      "িকিউ": 7114,
      "▁ফুটে": 7115,
      "▁ফরম": 7116,
      "▁কণ্ঠে": 7117,
      "▁মুসলমান": 7118,
      "▁প্রতিষ্ঠানে": 7119,
      "▁প্রচল": 7120,
      "▁আলোচিত": 7121,
      "▁দরিদ্র": 7122,
      "▁পদের": 7123,
      "২.": 7124,
      "ভিড": 7125,
      "▁ক্ষমতার": 7126,
      "▁তখনো": 7127,
      "▁মুম্বাই": 7128,
      "▁পির": 7129,
      "▁গ্রহণযোগ্য": 7130,
      "▁বদল": 7131,
      "▁শাহর": 7132,
      "▁রেলওয়ে": 7133,
      "পর্য": 7134,
      "▁গাজীপুর": 7135,
      "▁নন": 7136,
      "ুনির": 7137,
      "▁প্রভ": 7138,
      "▁শফিকুল": 7139,
      "▁ক্যাম্পাসে": 7140,
      "▁আরা": 7141,
      "▁সেখানকার": 7142,
      "▁পড়লে": 7143,
      "▁সামগ্র": 7144,
      "▁সোহরা": 7145,
      "ধ্যায়": 7146,
      "▁বরখাস্ত": 7147,
      "▁পেসার": 7148,
      "গুলো।": 7149,
      "▁কখন": 7150,
      "ang": 7151,
      "▁পাখি": 7152,
      "িতে।": 7153,
      "▁‘জ": 7154,
      "▁রাজনীতিতে": 7155,
      "▁নকশা": 7156,
      "মাতে": 7157,
      "▁আতঙ্ক": 7158,
      "▁বৃদ্ধির": 7159,
      "▁আলো:": 7160,
      "▁বিজ্ঞাপন": 7161,
      "▁স্টেডিয়ামে": 7162,
      "▁শে": 7163,
      "র্ডার": 7164,
      "▁ভোটারদের": 7165,
      "াইলের": 7166,
      "▁পুত": 7167,
      "▁প্রোগ্রাম": 7168,
      "ড়া,": 7169,
      "াসি": 7170,
      "ab": 7171,
      "▁আসামির": 7172,
      "বিচার": 7173,
      "▁ব্যক্তিত্ব": 7174,
      "বোধ": 7175,
      "▁কাছাকাছি": 7176,
      "▁ন্য": 7177,
      "নীত": 7178,
      "টপ": 7179,
      "▁রহমানকে": 7180,
      "▁fr": 7181,
      "▁এসেছেন।": 7182,
      "▁দেশকে": 7183,
      "▁দিকে।": 7184,
      "▁অনুভূতি": 7185,
      "▁৪৭": 7186,
      "▁বক": 7187,
      "্রমে": 7188,
      "▁৬৫": 7189,
      "▁ফেলতে": 7190,
      "▁ইতিহাসের": 7191,
      "▁(১৯": 7192,
      "▁নারায়ণগঞ্জের": 7193,
      "▁রয়টার": 7194,
      "বিহীন": 7195,
      "▁ইউন": 7196,
      "▁গভর্ন": 7197,
      "▁দেশীয়": 7198,
      "হাগ": 7199,
      "▁পাবে।": 7200,
      "▁রোনালদো": 7201,
      "্যালঘ": 7202,
      "োলা": 7203,
      "▁প্রতিবেশী": 7204,
      "লাল": 7205,
      "▁ভালোভাবে": 7206,
      "▁সম্মিল": 7207,
      "▁গাজীপুরের": 7208,
      "▁পর্যাপ্ত": 7209,
      "▁সুদ": 7210,
      "বার্ষিকী": 7211,
      "লত": 7212,
      "▁নেত্র": 7213,
      "▁শ্রমিকেরা": 7214,
      "বাজারে": 7215,
      "িস্তানের": 7216,
      "▁সালে।": 7217,
      "প্রধানমন্ত্রী": 7218,
      "োনি": 7219,
      "▁উদ্দিন,": 7220,
      "▁P": 7221,
      "▁পাকা": 7222,
      "▁বিএস": 7223,
      "ীষ": 7224,
      "▁শ্বাস": 7225,
      "▁উপাদ": 7226,
      "▁রাষ্ট্রের": 7227,
      "শত": 7228,
      "িমূলক": 7229,
      "জ্জামান": 7230,
      "▁গাইবান্ধ": 7231,
      "ঞ্ছ": 7232,
      "▁হেফাজ": 7233,
      "▁সাব্বির": 7234,
      "▁মেসির": 7235,
      "▁সাজা": 7236,
      "▁সিরিজে": 7237,
      "▁স্বার্থে": 7238,
      "▁সঙ্গেই": 7239,
      "▁দশম": 7240,
      "▁ওয়ার্ডে": 7241,
      "ঘরের": 7242,
      "ঙা": 7243,
      "▁সহযোগিতায়": 7244,
      "▁ত্যাগ": 7245,
      "▁এখনই": 7246,
      "▁কর্মকর্তাকে": 7247,
      "▁তালুকদার": 7248,
      "▁৪৯": 7249,
      "▁ব্যাংকে": 7250,
      "▁প্রসঙ্গ": 7251,
      "▁সরেজমিনে": 7252,
      "▁১২টা": 7253,
      "▁সোসাই": 7254,
      "▁৫৪": 7255,
      "ড্র": 7256,
      "মকে": 7257,
      "▁হারা": 7258,
      "▁পরশু": 7259,
      "হত্য": 7260,
      "▁দুর্ভোগ": 7261,
      "নেই": 7262,
      "কল্যাণ": 7263,
      "▁ব্রা": 7264,
      "▁পছন্দের": 7265,
      "▁সাহস": 7266,
      "▁বিমানবন্দরে": 7267,
      "রু": 7268,
      "▁সংগঠ": 7269,
      "▁নাচ": 7270,
      "▁আবেগ": 7271,
      "্যমান": 7272,
      "▁প্রমাণিত": 7273,
      "▁রক": 7274,
      "▁স্পিনার": 7275,
      "হাসিক": 7276,
      "হাল": 7277,
      "▁নেতা-কর্মী": 7278,
      "▁পারফরম্যান্স": 7279,
      "হাই": 7280,
      "▁একের": 7281,
      "▁বর্ণনা": 7282,
      "▁দোকানের": 7283,
      "▁হাসান,": 7284,
      "ভাগ্য": 7285,
      "▁আগ্রহী": 7286,
      "▁জিন": 7287,
      "▁সমাজে": 7288,
      "▁সৌন্দর": 7289,
      "▁চিনি": 7290,
      "▁পিঠ": 7291,
      "▁অবস্থানে": 7292,
      "▁রাতেই": 7293,
      "▁ইন্দ": 7294,
      "ওর": 7295,
      "▁কর্তৃপক্ষ।": 7296,
      "চিত্রে": 7297,
      "তিবাচক": 7298,
      "▁ঝড়": 7299,
      "▁চিৎকার": 7300,
      "▁নিলে": 7301,
      "াতির": 7302,
      "▁কোরিয়ার": 7303,
      "মার্ক": 7304,
      "▁প্রভাবশালী": 7305,
      "▁=": 7306,
      "▁সংসার": 7307,
      "ফামার": 7308,
      "▁পড়ুন": 7309,
      "ও,": 7310,
      "▁প্রাকৃতিক": 7311,
      "▁৫৭": 7312,
      "▁with": 7313,
      "-নির": 7314,
      "বিএনপির": 7315,
      "▁আনসার": 7316,
      "▁টার্ম": 7317,
      "ল্লার": 7318,
      "খ.": 7319,
      "▁ফ্যাশন": 7320,
      "▁জিততে": 7321,
      "▁গিয়েছিল": 7322,
      "-মা": 7323,
      "▁(২৪": 7324,
      "ভীর": 7325,
      "ব্যবস্থা": 7326,
      "-পর": 7327,
      "েদ": 7328,
      "▁নয়া": 7329,
      "তাকে": 7330,
      "▁ফাইনাল": 7331,
      "▁মহিউদ্দিন": 7332,
      "▁যোগাযোগমাধ্য": 7333,
      "▁জরিপ": 7334,
      "▁এজেন্ট": 7335,
      "▁২০১৮": 7336,
      "▁‘প্র": 7337,
      "▁অ্যাকাউন": 7338,
      "ল্যান্ডের": 7339,
      "▁বন্দুক": 7340,
      "▁শামসুল": 7341,
      "▁অবা": 7342,
      "▁গোলা": 7343,
      "▁আন্দোলনে": 7344,
      "▁তল্লাশি": 7345,
      "▁প্রতিপক্ষের": 7346,
      "▁‘ই": 7347,
      "▁ছেলেকে": 7348,
      "-চাম": 7349,
      "▁ট্রাইব্যুনাল": 7350,
      "তাম।": 7351,
      "য়েড": 7352,
      "▁সংক্ষিপ্ত": 7353,
      "▁তিনটার": 7354,
      "▁বাস্তবায়নের": 7355,
      "▁মনোযোগ": 7356,
      "▁খোক": 7357,
      "▁ওয়াশিং": 7358,
      "▁সবজি": 7359,
      "▁ব্যথা": 7360,
      "▁আসল": 7361,
      "▁দিচ্ছেন": 7362,
      "▁সংবর্ধ": 7363,
      "ch": 7364,
      "▁হবেন": 7365,
      "▁পাঞ্জ": 7366,
      "▁হাউস": 7367,
      "▁দিত": 7368,
      "▁বিপণ": 7369,
      "মাবেশ": 7370,
      "▁ইউনিট": 7371,
      "▁ভাগ্য": 7372,
      "ূর্ধ্ব": 7373,
      "াইজ": 7374,
      "স্থলে": 7375,
      "▁ভাবনা": 7376,
      "▁বর্ষের": 7377,
      "▁বললেন": 7378,
      "▁সংখ্যালঘ": 7379,
      "▁অটোরিক": 7380,
      "▁মুখ্যমন্ত্রী": 7381,
      "োন্ন": 7382,
      "▁নিযুক্ত": 7383,
      "▁কামর": 7384,
      "▁শর্তে": 7385,
      "▁অভাবে": 7386,
      "▁পাল্টা": 7387,
      "▁তালা": 7388,
      "▁উপন্যাস": 7389,
      "▁আমিনুল": 7390,
      "িদার": 7391,
      "▁ছক": 7392,
      "▁আবি": 7393,
      "▁হাসিন": 7394,
      "▁কাপুর": 7395,
      "▁ভ্রমণ": 7396,
      "শাস": 7397,
      "ারা।": 7398,
      "গুন": 7399,
      "ফির": 7400,
      "দুই": 7401,
      "▁মক": 7402,
      "▁করছিলেন।": 7403,
      "▁বুল": 7404,
      "ক্তিক": 7405,
      "▁দেখাতে": 7406,
      "াগার": 7407,
      "▁নির্দেশে": 7408,
      "ানু": 7409,
      "▁মাত্রা": 7410,
      "▁দুর্যোগ": 7411,
      "▁বাঁশ": 7412,
      "▁ত্রু": 7413,
      "▁ষষ্ঠ": 7414,
      "▁পূর্ণাঙ্গ": 7415,
      "▁রাঙামা": 7416,
      "সই": 7417,
      "▁করছি": 7418,
      "▁নারীকে": 7419,
      "▁রওনা": 7420,
      "▁পরিবহনের": 7421,
      "েরা।": 7422,
      "▁স্নাতক": 7423,
      "▁পরিসংখ্যান": 7424,
      "ম্বে": 7425,
      "▁রফিক": 7426,
      "▁পারব": 7427,
      "▁জনগো": 7428,
      "▁দুল": 7429,
      "▁টেল": 7430,
      "▁(প": 7431,
      "▁জিম্বাবু": 7432,
      "▁আমদান": 7433,
      "▁জন্যও": 7434,
      "▁পাননি।": 7435,
      "▁উচ্ছ": 7436,
      "▁প্রচারণা": 7437,
      "▁wor": 7438,
      "▁ভুয়া": 7439,
      "▁বার্সেলোনা": 7440,
      "▁ফেলার": 7441,
      "ঈন": 7442,
      "▁হবেন।": 7443,
      "▁কথাই": 7444,
      "▁এরা": 7445,
      "▁তফ": 7446,
      "▁ছাদ": 7447,
      "▁গণমাধ্যমে": 7448,
      "▁চারপা": 7449,
      "তাঁ": 7450,
      "▁শুরুতেই": 7451,
      "▁এখানকার": 7452,
      "▁পশ্চি": 7453,
      "▁পলাতক": 7454,
      "▁ইউনাইটেড": 7455,
      "-৬": 7456,
      "▁রুম": 7457,
      "▁মানবতা": 7458,
      "▁ইসরায়ে": 7459,
      "▁সিস্টেম": 7460,
      "▁ক্ষমা": 7461,
      "▁অভিষেক": 7462,
      "▁গান্ধ": 7463,
      "▁ঘাটতি": 7464,
      "▁মেজর": 7465,
      "▁দূরত্ব": 7466,
      "হু": 7467,
      "▁ডিফ": 7468,
      "▁ওপর।": 7469,
      "▁শাহজাহান": 7470,
      "▁নাগরিকদের": 7471,
      "▁বলিউডের": 7472,
      "▁সহজে": 7473,
      "▁নেই।’": 7474,
      "▁প্রতিনিধিদ": 7475,
      "▁বিনিময়ে": 7476,
      "তরা": 7477,
      "▁বিক্রে": 7478,
      "▁রিট": 7479,
      "▁অনুসন্ধান": 7480,
      "▁শাড়ি": 7481,
      "▁দম্প": 7482,
      "▁বুকে": 7483,
      "শ্বিক": 7484,
      "▁শিরোনামে": 7485,
      "স্ট্যান্ড": 7486,
      "▁প্রতিষ্ঠানটির": 7487,
      "—সব": 7488,
      "▁সেখানেই": 7489,
      "▁দিনই": 7490,
      "গ্রা": 7491,
      "▁সিরাজুল": 7492,
      "▁তাড়": 7493,
      "▁অনুশীলন": 7494,
      "চেঞ্জ": 7495,
      "▁পার্বত্য": 7496,
      "▁কর্মকর্তা-কর্ম": 7497,
      "▁ব্যাপারটা": 7498,
      "ব্রত": 7499,
      "▁‘খ": 7500,
      "▁শান্তিপূর্ণ": 7501,
      "▁বন্ধুসভার": 7502,
      "▁ক্যামেরা": 7503,
      "▁প্রবন্ধ": 7504,
      "▁আলমের": 7505,
      "▁গর্ব": 7506,
      "▁ট্রাফিক": 7507,
      "▁it": 7508,
      "িথ": 7509,
      "▁চাকরির": 7510,
      "▁দিচ্ছেন।": 7511,
      "সিম": 7512,
      "▁কাঁচা": 7513,
      "▁প্রচারণ": 7514,
      "ap": 7515,
      "▁সেন্টারে": 7516,
      "রেট": 7517,
      "▁সচিবাল": 7518,
      "▁অর্ধেক": 7519,
      "▁কাজ।": 7520,
      "▁কেনা": 7521,
      "িলি": 7522,
      "qu": 7523,
      "▁শত্র": 7524,
      "্মেল": 7525,
      "▁ওমর": 7526,
      "▁খন": 7527,
      "ভী": 7528,
      "▁এসআই": 7529,
      "▁মাইল": 7530,
      "▁উড়িয়ে": 7531,
      "দের।": 7532,
      "▁উপপরিচালক": 7533,
      "▁গুলশান": 7534,
      "▁আজও": 7535,
      "▁শ্রেণিতে": 7536,
      "▁হাজারের": 7537,
      "-পুলিশ": 7538,
      "▁এশিয়ার": 7539,
      "▁দিনটি": 7540,
      "▁অষ্টম": 7541,
      "▁কর্মচারী": 7542,
      "▁মিউজ": 7543,
      "▁কুমিল্লার": 7544,
      "▁সম্প্রসারণ": 7545,
      "if": 7546,
      "তল": 7547,
      "বিধ": 7548,
      "▁চিকিৎসকের": 7549,
      "▁কৃষ্ণ": 7550,
      "▁সহিংসতা": 7551,
      "▁অনুসার": 7552,
      "▁কাগজপত্র": 7553,
      "▁গবেষক": 7554,
      "▁‘চ": 7555,
      "▁আদা": 7556,
      "▁ব্রে": 7557,
      "▁জার্মান": 7558,
      "▁কঠিন।": 7559,
      "▁দু-এক": 7560,
      "▁নরেন্দ্র": 7561,
      "ৃষ্ট": 7562,
      "▁জ্যাক": 7563,
      "ঙ্কের": 7564,
      "▁ভঙ্গ": 7565,
      "▁শাখ": 7566,
      "▁ইউনিভার্সিটি": 7567,
      "▁রিক": 7568,
      "▁খানিক": 7569,
      "▁মান্নান": 7570,
      "েম্বরের": 7571,
      "▁হানিফ": 7572,
      "▁নোট": 7573,
      "▁দুবার": 7574,
      "▁নেতিবাচক": 7575,
      "▁মজুরি": 7576,
      "▁সংসদীয়": 7577,
      "▁ক্ষতিপূ": 7578,
      "▁স্টু": 7579,
      "▁জিপিএ": 7580,
      "▁ব্যান": 7581,
      "▁জিয়াউর": 7582,
      "▁বড়ুয়া": 7583,
      "▁বালিকা": 7584,
      "▁মেন": 7585,
      "▁চাঁদা": 7586,
      "▁৫২": 7587,
      "▁হোসাইন": 7588,
      "▁ঢো": 7589,
      "▁একজনকে": 7590,
      "▁নাটোর": 7591,
      "▁বাল্য": 7592,
      "ржи": 7593,
      "ুতে": 7594,
      "▁বুঝিয়ে": 7595,
      "▁এক্সপ্রে": 7596,
      "▁সাহেব": 7597,
      "▁জবানবন্দি": 7598,
      "▁মাদ্রাসা": 7599,
      "ৃতা": 7600,
      "▁পারছি": 7601,
      "▁সূর্য": 7602,
      "▁চেক": 7603,
      "▁খস": 7604,
      "৩.": 7605,
      "পুটি": 7606,
      "▁টার্মিন": 7607,
      "-পা": 7608,
      "▁এক্সচেঞ্জ": 7609,
      "▁ওয়েবসাইটে": 7610,
      "▁তৃণমূল": 7611,
      "▁পুকুর": 7612,
      "▁গি": 7613,
      "▁ভালোই": 7614,
      "▁যাবে,": 7615,
      "ill": 7616,
      "▁প্রতিষ্ঠার": 7617,
      "▁৬৪": 7618,
      "▁১৫০": 7619,
      "ছিলাম,": 7620,
      "ক)": 7621,
      "▁সফরের": 7622,
      "ct": 7623,
      "▁একজনের": 7624,
      "▁পর্যালো": 7625,
      "দেশিক": 7626,
      "সকে": 7627,
      "▁মরদেহ": 7628,
      "গড়": 7629,
      "▁আহমেদ।": 7630,
      "▁মৃত্যুদণ্ড": 7631,
      "▁বিমানবন্দর": 7632,
      "ভেট": 7633,
      "▁এভাবেই": 7634,
      "▁দারিদ্র": 7635,
      "▁তালে": 7636,
      "বদন্ত": 7637,
      "▁ওয়ার্ল্ড": 7638,
      "▁বাবু": 7639,
      "▁ম্যাজিস্ট্রেট": 7640,
      "▁যাবেন": 7641,
      "▁অংশগ্রহ": 7642,
      "ডাঙ্গা": 7643,
      "সেই": 7644,
      "▁সিড": 7645,
      "▁মেস": 7646,
      "▁১১টা": 7647,
      "ন্দী": 7648,
      "▁ভুগ": 7649,
      "▁বন্যা": 7650,
      "▁জাপানের": 7651,
      "প্রতিনিধ": 7652,
      "ম্ভ": 7653,
      "▁ইশ": 7654,
      "দাদ": 7655,
      "ুদে": 7656,
      "▁পরীক্ষার্থী": 7657,
      "▁অবসান": 7658,
      "েষ্টার": 7659,
      "▁দলটি": 7660,
      "▁আলোয়": 7661,
      "▁গেয়ে": 7662,
      "▁ছিলেন।\n": 7663,
      "▁টেস্টের": 7664,
      "▁পাচ্ছে": 7665,
      "▁ওয়াল": 7666,
      "▁ঘটিয়ে": 7667,
      "▁অনূর্ধ্ব": 7668,
      "▁বিকাশ": 7669,
      "▁ফরিদপুর": 7670,
      "▁ভট": 7671,
      "ভেজ": 7672,
      "▁রাশ": 7673,
      "▁ছাত্রদলের": 7674,
      "▁ধানের": 7675,
      "▁কর্ণ": 7676,
      "▁সমৃদ্ধ": 7677,
      "▁প্রবৃদ্ধি": 7678,
      "▁দেয়াল": 7679,
      "স্বাস্থ্য": 7680,
      "▁সফটওয়্যার": 7681,
      "▁সিদ্ধান্তের": 7682,
      "▁ফেনী": 7683,
      "▁ময়লা": 7684,
      "▁আকবর": 7685,
      "▁শোভাযাত্রা": 7686,
      "▁স্বচ্ছ": 7687,
      "▁অবলম্ব": 7688,
      "▁এড": 7689,
      "ঙ্গার": 7690,
      "▁পর্যটন": 7691,
      "▁ব্যতিক্রম": 7692,
      "▁অ্যাসোসিয়েশনের": 7693,
      "▁মাদ্রিদ": 7694,
      "▁মাহফুজ": 7695,
      "▁সরকার,": 7696,
      "▁মাছের": 7697,
      "▁ঐতিহাসিক": 7698,
      "মায়": 7699,
      "▁অগ্ন": 7700,
      "িক,": 7701,
      "▁বাবুল": 7702,
      "▁নীতিমালা": 7703,
      "পরিব": 7704,
      "▁সংযুক্ত": 7705,
      "▁কর্তব্যরত": 7706,
      "▁সহায়তায়": 7707,
      "▁মাশরাফি": 7708,
      "তরাং": 7709,
      "ণীয়": 7710,
      "▁মধ্যে।": 7711,
      "▁৫৬": 7712,
      "হাটের": 7713,
      "▁পাওয়ায়": 7714,
      "▁আনিসুল": 7715,
      "সহকারী": 7716,
      "▁সমর্থক": 7717,
      "▁জোড়া": 7718,
      "▁নাই।": 7719,
      "▁পলি": 7720,
      "▁সত্যিই": 7721,
      "▁দিল্ল": 7722,
      "▁হাবিবুর": 7723,
      "▁প্রযুক্তির": 7724,
      "ীর্ত": 7725,
      "▁২০০৭": 7726,
      "▁সুলতান": 7727,
      "নিম": 7728,
      "▁আফ্রিকা": 7729,
      "সরে": 7730,
      "▁মাগ": 7731,
      "▁নারীরা": 7732,
      "হাজ": 7733,
      "▁তেজ": 7734,
      "িলার": 7735,
      "পিকে": 7736,
      "▁পায়ের": 7737,
      "ধ্যক্ষ": 7738,
      "▁চালান।": 7739,
      "▁উদ্দিনের": 7740,
      "▁হাওলা": 7741,
      "▁অক্ষ": 7742,
      "▁প্রাঙ্গণে": 7743,
      "▁আত্মবিশ্বাস": 7744,
      "জিতে": 7745,
      "▁শিক্ষকেরা": 7746,
      "▁বজায়": 7747,
      "▁চা-চাম": 7748,
      "মামলার": 7749,
      "▁খায়": 7750,
      "▁মন্ত্রণালয়ে": 7751,
      "▁পেঁয়াজ": 7752,
      "ফিন": 7753,
      "িতভাবে": 7754,
      "▁১৯৭১": 7755,
      "য়ী": 7756,
      "▁অবৈধভাবে": 7757,
      "▁(b)": 7758,
      "সিন": 7759,
      "▁ভরে": 7760,
      "▁বন্ধুর": 7761,
      "▁সন্তানদের": 7762,
      "১.": 7763,
      "▁সদ্য": 7764,
      "সম্প্রতি": 7765,
      "কেন্দ্রে": 7766,
      "টনের": 7767,
      "▁পটুয়া": 7768,
      "▁পেশা": 7769,
      "তাব": 7770,
      "▁না।\n": 7771,
      "▁ঘটেছে": 7772,
      "▁রশীদ": 7773,
      "▁উদ্যাপ": 7774,
      "▁লেখাপ": 7775,
      "▁দেখেন": 7776,
      "ংক": 7777,
      "▁নু": 7778,
      "▁রাজীব": 7779,
      "▁হাইকোর্টের": 7780,
      "▁এঁদের": 7781,
      "▁সবই": 7782,
      "▁হলুদ": 7783,
      "▁রোজ": 7784,
      "▁একেবারেই": 7785,
      "▁লেখার": 7786,
      "লক": 7787,
      "▁‘ও": 7788,
      "-১০": 7789,
      "▁সিএনজি": 7790,
      "▁শহিদুল": 7791,
      "▁দেলোয়ার": 7792,
      "▁ডলার।": 7793,
      "▁ফসল": 7794,
      "াহীর": 7795,
      "▁কিংবদন্ত": 7796,
      "▁নিয়োগের": 7797,
      "▁ককটেল": 7798,
      "▁মালামাল": 7799,
      "▁শাহাদ": 7800,
      "▁প্রশাসনিক": 7801,
      "▁গণতন্ত্রের": 7802,
      "▁ছি": 7803,
      "▁বিজিবি": 7804,
      "▁বসিয়ে": 7805,
      "ধরনের": 7806,
      "▁বিষয়।": 7807,
      "বন্দর": 7808,
      "ড়িগ্রাম": 7809,
      "▁অনুমোদ": 7810,
      "▁জলাবদ্ধ": 7811,
      "▁দেরি": 7812,
      "▁ফুটবলের": 7813,
      "▁ডেপুটি": 7814,
      "▁প্রতিদ্বন্দ্বিতা": 7815,
      "▁মালে": 7816,
      "▁পদ্মা": 7817,
      "▁এজাহ": 7818,
      "▁রাগ": 7819,
      "াগড়া": 7820,
      "▁ওকে": 7821,
      "▁আগুনে": 7822,
      "▁আইএস": 7823,
      "▁টিম": 7824,
      "▁এসএসসি": 7825,
      "▁দান": 7826,
      "▁ঢাকা-": 7827,
      "▁সংস্করণ": 7828,
      "▁পাসপোর্ট": 7829,
      "An": 7830,
      "াপনী": 7831,
      "▁যেটা": 7832,
      "▁অভিবাসন": 7833,
      "▁দ্বারা": 7834,
      "তোয়ালি": 7835,
      "▁সামর্থ": 7836,
      "াইল্যান্ড": 7837,
      "▁মজার": 7838,
      "▁গুলিতে": 7839,
      "বনের": 7840,
      "ত্তির": 7841,
      "▁কর্মসূচিতে": 7842,
      "▁হরি": 7843,
      "▁সাজানো": 7844,
      "▁সকল": 7845,
      "নাজ": 7846,
      "জালাল": 7847,
      "▁ক্যাপ": 7848,
      "▁মোজাম": 7849,
      "▁সম্পদের": 7850,
      "▁শুনানির": 7851,
      "▁শও": 7852,
      "▁শিশুকে": 7853,
      "মেলা": 7854,
      "▁হায়দার": 7855,
      "▁মিডিয়া": 7856,
      "▁বলিউড": 7857,
      "াইয়া": 7858,
      "িতিশীল": 7859,
      "নতুন": 7860,
      "▁পাড়ি": 7861,
      "▁ঠিকমতো": 7862,
      "▁ছয়জন": 7863,
      "াবর": 7864,
      "▁চিকিৎসকেরা": 7865,
      "ে,": 7866,
      "▁ট্রেনের": 7867,
      "▁অফিসার": 7868,
      "▁হবে?": 7869,
      "▁নবম": 7870,
      "▁কবীর": 7871,
      "▁রবিউল": 7872,
      "দীপ": 7873,
      "▁ফাঁকে": 7874,
      "▁চাই,": 7875,
      "▁মাকে": 7876,
      "▁করুন": 7877,
      "গুলোয়": 7878,
      "▁ফজ": 7879,
      "জিদের": 7880,
      "▁দেন,": 7881,
      "▁উদ্ভাব": 7882,
      "▁আউ": 7883,
      "▁নথি": 7884,
      "ামপুর": 7885,
      "▁পিটিয়ে": 7886,
      "ামেলা": 7887,
      "নিজ": 7888,
      "▁পরিবর্তে": 7889,
      "▁মনোনীত": 7890,
      "ভিন": 7891,
      "▁দিলেও": 7892,
      "▁চেন": 7893,
      "▁কারিগ": 7894,
      "▁রিটার্নিং": 7895,
      "জিং": 7896,
      "▁কোনোভাবেই": 7897,
      "▁চলার": 7898,
      "▁বৈঠকের": 7899,
      "▁সমন্বয়ে": 7900,
      "▁দাদ": 7901,
      "▁একাদশ": 7902,
      "পিং": 7903,
      "▁অ্যাটর্নি": 7904,
      "▁আত্মহত্যা": 7905,
      "▁প্রতিদ্বন্দ্বী": 7906,
      "▁গুজ": 7907,
      "▁পাওনা": 7908,
      "▁স্বাদ": 7909,
      "▁দশকে": 7910,
      "▁প্রচারিত": 7911,
      "▁রেজিস্ট্র": 7912,
      "বয়": 7913,
      "ামন্ত্রী": 7914,
      "▁বক্তব্যের": 7915,
      "▁রোডের": 7916,
      "১৫": 7917,
      "▁তিনজনকে": 7918,
      "▁অস্থির": 7919,
      "▁মৌলিক": 7920,
      "স্টিক": 7921,
      "▁ফিরোজ": 7922,
      "▁মেহেদী": 7923,
      "▁যোগ্যতা": 7924,
      "▁ভিসা": 7925,
      "▁অভিযানের": 7926,
      "▁করলেন।": 7927,
      "▁He": 7928,
      "▁কোহল": 7929,
      "▁দৃষ্টান্ত": 7930,
      "▁পাতা": 7931,
      "▁জেন": 7932,
      "সংগীত": 7933,
      "▁আপত্তি": 7934,
      "▁ইউনিটের": 7935,
      "▁ডেভিড": 7936,
      "▁লতিফ": 7937,
      "▁ভালোবাসার": 7938,
      "▁কর্নে": 7939,
      "হাত": 7940,
      "▁ব্যাক": 7941,
      "▁ভাঙা": 7942,
      "▁গরিব": 7943,
      "▁অনা": 7944,
      "▁অস্থায়ী": 7945,
      "▁পদপ্র": 7946,
      "▁জনতা": 7947,
      "▁ফাঁকা": 7948,
      "এস)": 7949,
      "▁অপরাজিত": 7950,
      "▁রুশ": 7951,
      "▁প্রিয়া": 7952,
      "▁হুদ": 7953,
      "▁পার্থক্য": 7954,
      "▁মিয়া,": 7955,
      "▁(২২": 7956,
      "▁দুর্বৃত্তরা": 7957,
      "▁(d)": 7958,
      "▁মিলন": 7959,
      "▁মাইক্রোবাস": 7960,
      "▁সুবিধ": 7961,
      "বাঁ": 7962,
      "▁নিপ": 7963,
      "▁ফিরতে": 7964,
      "ডিয়ার": 7965,
      "▁খেয়াল": 7966,
      "ব্ধ": 7967,
      "▁শতাংশের": 7968,
      "▁পশ্চিমবঙ্গের": 7969,
      "▁দৌলত": 7970,
      "▁প্রেক্ষাপ": 7971,
      "▁মুনা": 7972,
      "▁বাল্যবিবাহ": 7973,
      "এ)": 7974,
      "মেন": 7975,
      "▁শিম": 7976,
      "তনের": 7977,
      "যান": 7978,
      "▁ইঞ্চ": 7979,
      "▁যাতায়াত": 7980,
      "আউট": 7981,
      "▁অচ": 7982,
      "▁r": 7983,
      "▁মোস্তাফিজুর": 7984,
      "▁সুনির্দিষ্ট": 7985,
      "▁মুন্সি": 7986,
      "▁হয়েছিলেন": 7987,
      "▁আবহাওয়া": 7988,
      "ড়ক": 7989,
      "▁অর্থবছরের": 7990,
      "▁ঠান্ডা": 7991,
      "ুখী": 7992,
      "ভূত": 7993,
      "▁বাড়তে": 7994,
      "ail": 7995,
      "▁দুজনই": 7996,
      "টল": 7997,
      "▁(পি": 7998,
      "▁সমঝোতা": 7999,
      "▁সিভিল": 8000,
      "▁লিও": 8001,
      "▁ইসলামকে": 8002,
      "▁১৯৫": 8003,
      "▁ঝিন": 8004,
      "্রো": 8005,
      "▁উর": 8006,
      "াবাজ": 8007,
      "▁জানালেন": 8008,
      "▁করতেন": 8009,
      "▁প্রেমিক": 8010,
      "▁বন্য": 8011,
      "্রান্ত": 8012,
      "বৃ": 8013,
      "▁পত্রিকার": 8014,
      "▁নীলফামার": 8015,
      "▁হচ্ছেন": 8016,
      "▁মিঠ": 8017,
      "▁জলবায়": 8018,
      "▁তোমাকে": 8019,
      "▁মাদ্রাসার": 8020,
      "▁গবেষণার": 8021,
      "▁নামাজ": 8022,
      "▁দায়রা": 8023,
      "oun": 8024,
      "▁।": 8025,
      "▁মিষ্টি": 8026,
      "▁পোল": 8027,
      "▁কিনা": 8028,
      "▁রুবেল": 8029,
      "▁রীতিমতো": 8030,
      "▁ফোনে": 8031,
      "▁মধ্যেও": 8032,
      "বিশ্ববিদ্যাল": 8033,
      "▁চাপে": 8034,
      "▁টিকে": 8035,
      "▁রমজান": 8036,
      "▁পরা": 8037,
      "▁কুল": 8038,
      "▁দৌড়ে": 8039,
      "▁কর্নেল": 8040,
      "▁সান্ত": 8041,
      "▁অবশেষে": 8042,
      "▁পড়বে": 8043,
      "▁ম্যাচটা": 8044,
      "▁সন্ধান": 8045,
      "▁যৌথভাবে": 8046,
      "আমার": 8047,
      "▁কর্মশাল": 8048,
      "▁মালিকানা": 8049,
      "▁রোগীর": 8050,
      "▁তাড়া": 8051,
      "▁al": 8052,
      "▁যাত্রীবাহী": 8053,
      "▁তোমাদের": 8054,
      "▁ঋণের": 8055,
      "▁নিউজিল্যান্ডের": 8056,
      "▁ফার্ম": 8057,
      "▁একধরনের": 8058,
      "▁রক্ষায়": 8059,
      "▁শাহীন": 8060,
      "পাক": 8061,
      "▁ফকির": 8062,
      "▁শিশুরা": 8063,
      "▁ক.": 8064,
      "িকেট": 8065,
      "জামায়": 8066,
      "উথ": 8067,
      "▁অনেকটাই": 8068,
      "▁অনিয়ম": 8069,
      "▁ইলেকট্র": 8070,
      "হুর": 8071,
      "▁রাজশাহীর": 8072,
      "▁মাদার": 8073,
      "▁দৃঢ়": 8074,
      "▁নাসিম": 8075,
      "▁বিছ": 8076,
      "্যাঁ,": 8077,
      "অব": 8078,
      "িজে": 8079,
      "▁আছি।": 8080,
      "▁(c)": 8081,
      "▁একাধিকবার": 8082,
      "▁সংস্কারের": 8083,
      "▁রায়ে": 8084,
      "▁সূত্র:": 8085,
      "▁টেকনাফ": 8086,
      "পাঠ": 8087,
      "▁বহাল": 8088,
      "▁(ম": 8089,
      "▁মাঝেমধ্যে": 8090,
      "ষে": 8091,
      "পাতি": 8092,
      "▁রাজা": 8093,
      "▁পাহাড়ি": 8094,
      "োনো": 8095,
      "▁মোতায়": 8096,
      "▁পড়ছে।": 8097,
      "▁ঘুষ": 8098,
      "▁প্রজ": 8099,
      "করণের": 8100,
      "▁অনিশ্": 8101,
      "সামরিক": 8102,
      "▁রাখেন।": 8103,
      "বস্ত": 8104,
      "বার্তা": 8105,
      "-গ": 8106,
      "▁গুরুত্বপূর্ণ।": 8107,
      "▁দামে": 8108,
      "সূত্র:": 8109,
      "▁স্টা": 8110,
      "▁বক্তৃতা": 8111,
      "▁রিপাবল": 8112,
      "ফায়েল": 8113,
      "▁ত্রিপুর": 8114,
      "▁অনুপস্থ": 8115,
      "প্প": 8116,
      "▁খুনের": 8117,
      "▁ফাউন্ডেশনের": 8118,
      "পি,": 8119,
      "▁বঞ্চিত": 8120,
      "চর্": 8121,
      "ালেন": 8122,
      "▁his": 8123,
      "▁খত": 8124,
      "▁ব্র্যাক": 8125,
      "▁দশকের": 8126,
      "▁চলবে।": 8127,
      "লেন,": 8128,
      "▁শীর্ষে": 8129,
      "▁দপ্তরের": 8130,
      "ছাড়া": 8131,
      "▁শ্বশুর": 8132,
      "▁খাঁ": 8133,
      "▁অবন": 8134,
      "▁জার্মানির": 8135,
      "▁চলাচলের": 8136,
      "▁মিলিয়ন": 8137,
      "▁সমর্থকেরা": 8138,
      "▁ডেভেল": 8139,
      "▁গবেষণায়": 8140,
      "▁খেলায়": 8141,
      "▁উদ্দেশ্যে": 8142,
      "▁ছুটির": 8143,
      "▁আছেন,": 8144,
      "▁প্রাথমিকভাবে": 8145,
      "▁প্রাণী": 8146,
      "▁দক্ষতা": 8147,
      "▁৫১": 8148,
      "▁অঙ্গীকার": 8149,
      "▁মোকাবিল": 8150,
      "▁হয়।’": 8151,
      "▁রক্ষার": 8152,
      "▁সাক্ষাৎকারে": 8153,
      "▁পদ্ধতিতে": 8154,
      "!\n": 8155,
      "▁বললে": 8156,
      "▁আনন্দের": 8157,
      "▁রাশেদ": 8158,
      "▁সঙ্গী": 8159,
      "▁ইস্যু": 8160,
      "▁২০০৬": 8161,
      "ঁসুল": 8162,
      "ি।’": 8163,
      "▁মেধাব": 8164,
      "▁দ্র": 8165,
      "▁রচনা": 8166,
      "ভবনে": 8167,
      "▁শিক্ষাপ্রতিষ্ঠান": 8168,
      "য়েদ": 8169,
      "▁নেবে": 8170,
      "▁পালিত": 8171,
      "একই": 8172,
      "▁ফেসবুকের": 8173,
      "তিকর": 8174,
      "▁পাইল": 8175,
      "▁নিন্দা": 8176,
      "▁(জি": 8177,
      "▁প্রার্থীরা": 8178,
      "▁পুড়িয়ে": 8179,
      "▁শরীফ": 8180,
      "পুল": 8181,
      "▁অস্ত": 8182,
      "িশন": 8183,
      "▁শাহজালাল": 8184,
      "▁আলম।": 8185,
      "▁প্রশাসকের": 8186,
      "অভি": 8187,
      "িকর": 8188,
      "▁অসম্ভব": 8189,
      "▁সুতরাং": 8190,
      "▁চান,": 8191,
      "▁শিশুটির": 8192,
      "▁পিএস": 8193,
      "▁পরিবারকে": 8194,
      "▁অপার": 8195,
      "মুন": 8196,
      "গন": 8197,
      "▁স্টক": 8198,
      "▁দুর্বৃত্তরা।": 8199,
      "▁শাহরিয়ার": 8200,
      "▁মন্দির": 8201,
      "াতো": 8202,
      "▁মনোভাব": 8203,
      "চ্ছুক": 8204,
      "যা": 8205,
      "▁আরি": 8206,
      "▁কোয়ার": 8207,
      "▁ঈদে": 8208,
      "▁অবহ": 8209,
      "সংক্রান্ত": 8210,
      "▁কৌঁসুল": 8211,
      "ন্ধ্যা": 8212,
      "▁একদম": 8213,
      "্যো": 8214,
      "▁হবি": 8215,
      "▁বিস্ফোরণ": 8216,
      "▁(২১": 8217,
      "্মেদ": 8218,
      "▁(জ": 8219,
      "▁ভোটে": 8220,
      "▁আফর": 8221,
      "▁ক্যাচ": 8222,
      "▁মর্যাদা": 8223,
      "▁ঘটনাস্থলেই": 8224,
      "▁শফিক": 8225,
      "যুদ্ধে": 8226,
      "৫)।": 8227,
      "▁কই": 8228,
      "▁দলগুলোর": 8229,
      "▁আমিও": 8230,
      "▁৬০০": 8231,
      "▁চলচ্চিত্রের": 8232,
      "▁আতিক": 8233,
      "▁দপ্তরে": 8234,
      "▁হয়রানি": 8235,
      "▁রিয়াজ": 8236,
      "▁মাধ্যম": 8237,
      "▁লড়াইয়ে": 8238,
      "৭)": 8239,
      "িত্স": 8240,
      "▁তাঁকে।": 8241,
      "ির্ভূত": 8242,
      "▁বার্ত": 8243,
      "▁কামনা": 8244,
      "▁‘গ": 8245,
      "▁নওগাঁ": 8246,
      "▁কারিগরি": 8247,
      "▁ইফতার": 8248,
      "▁বৈশ্বিক": 8249,
      "▁গ্রাহক": 8250,
      "▁সে।": 8251,
      "▁বেড়াতে": 8252,
      "▁হাসানের": 8253,
      "▁ইব্রাহিম": 8254,
      "▁একটার": 8255,
      "▁বউ": 8256,
      "▁জাস": 8257,
      "▁প্রবল": 8258,
      "▁ইচ্ছ": 8259,
      "াপতির": 8260,
      "▁ডটকম": 8261,
      "-হ": 8262,
      "▁সার্ক": 8263,
      "▁দিয়েছিল": 8264,
      "▁কমিটিতে": 8265,
      "য়ায়": 8266,
      "▁হেড": 8267,
      "-খ": 8268,
      "্যারে": 8269,
      "▁জুল": 8270,
      "▁মোজাম্মেল": 8271,
      "▁ধাপে": 8272,
      "▁একইভাবে": 8273,
      "▁প্যানেল": 8274,
      "▁কাটার": 8275,
      "▁থাইল্যান্ড": 8276,
      "▁কুষ্টিয়া": 8277,
      "▁২৫০": 8278,
      "▁মেট্র": 8279,
      "ভাজন": 8280,
      "▁সালা": 8281,
      "▁বার্ন": 8282,
      "▁হোক।": 8283,
      "▁রাখে।": 8284,
      "▁ইনস্টিটিউটের": 8285,
      "▁ধরেন।": 8286,
      "সাহ": 8287,
      "▁রাকিব": 8288,
      "ামূলক": 8289,
      "▁সাংসদের": 8290,
      "▁উপে": 8291,
      "▁মূল্যায়ন": 8292,
      "▁k": 8293,
      "▁করবে,": 8294,
      "দেশি": 8295,
      "▁পর্যায়": 8296,
      "▁ফেডারেশনের": 8297,
      "se": 8298,
      "▁গিয়েছিল।": 8299,
      "▁১২টি": 8300,
      "▁জানায়।": 8301,
      "াল,": 8302,
      "▁ইউরোপের": 8303,
      "্ডিং": 8304,
      "▁পদার্থ": 8305,
      "▁সূচনা": 8306,
      "▁স্বজনের": 8307,
      "▁হচ্ছিল": 8308,
      "▁মার্কেট": 8309,
      "▁ব্যান্ড": 8310,
      "▁মানের": 8311,
      "▁মধু": 8312,
      "▁v": 8313,
      "▁অর্জনের": 8314,
      "▁দেয়,": 8315,
      "ht": 8316,
      "▁৭২": 8317,
      "ামিন": 8318,
      "▁মার্ট": 8319,
      "▁বন্ধের": 8320,
      "নেক": 8321,
      "স্থাপক": 8322,
      "হত্যার": 8323,
      "▁আলী।": 8324,
      "▁চিঠিতে": 8325,
      "▁সংয": 8326,
      "▁দর্শন": 8327,
      "্যক্ত": 8328,
      "▁স্": 8329,
      "▁মহাসড়ক": 8330,
      "▁ছাত্রছাত্র": 8331,
      "প্রেম": 8332,
      "▁ট্রাকের": 8333,
      "-কিশোর": 8334,
      "▁মানবতাবিরোধী": 8335,
      "▁দুটির": 8336,
      "▁প্রেস": 8337,
      "▁বিষয়গুলো": 8338,
      "▁বসানো": 8339,
      "▁ব্যবসার": 8340,
      "▁পদক": 8341,
      "▁ফিলিস্ত": 8342,
      "▁রাজ্যে": 8343,
      "▁কলকাতা": 8344,
      "▁করেছি": 8345,
      "▁আসামিরা": 8346,
      "▁তাও": 8347,
      "▁পরিচিত।": 8348,
      "рзЗрж": 8349,
      "বাহিত": 8350,
      "এরপর": 8351,
      "▁অ্যালবাম": 8352,
      "ায়নিক": 8353,
      "প্রণ": 8354,
      "▁বেদ": 8355,
      "▁নগদ": 8356,
      "▁ঈশ্বর": 8357,
      "▁com": 8358,
      "▁গণমাধ্যমের": 8359,
      "সায়": 8360,
      "৬)": 8361,
      "▁গ্রিন": 8362,
      "▁জোয়ার": 8363,
      "িয়েত": 8364,
      "▁ট্যাক": 8365,
      "▁জঙ্গিবাদ": 8366,
      "▁as": 8367,
      "▁পুনরায়": 8368,
      "▁দিনাজপুর": 8369,
      "▁ইজারা": 8370,
      "▁মেহের": 8371,
      "প্রকাশ": 8372,
      "▁মোকাবিলা": 8373,
      "ার্ড": 8374,
      "▁নৃ": 8375,
      "▁যেত।": 8376,
      "▁সঞ্জ": 8377,
      "▁অনুষ্ঠান।": 8378,
      "▁৫৮": 8379,
      "▁F": 8380,
      "▁উত্তোলন": 8381,
      "▁কাজটা": 8382,
      "▁সৌর": 8383,
      "▁সেনাবাহিনী": 8384,
      "▁পরিশ্রম": 8385,
      "বিধি": 8386,
      "পাড়": 8387,
      "▁ক্ষেত্র": 8388,
      "▁শওকত": 8389,
      "বলিত": 8390,
      "▁নির্মাণকাজ": 8391,
      "▁সংলাপ": 8392,
      "ঙ্কায়": 8393,
      "▁দশক": 8394,
      "ম্মদ": 8395,
      "▁সাক্ষী": 8396,
      "▁খতিয়ে": 8397,
      "গাজী": 8398,
      "▁ছেলেমেয়ে": 8399,
      "▁কেড়ে": 8400,
      "িক।": 8401,
      "▁সাফ": 8402,
      "▁বরাত": 8403,
      "টেও": 8404,
      "▁সাম্প্রদায়িক": 8405,
      "▁চেপে": 8406,
      "ুলা": 8407,
      "বিলে": 8408,
      "▁নীরব": 8409,
      "ce": 8410,
      "▁বাসস্ট্যান্ড": 8411,
      "▁জাকার": 8412,
      "▁গর্": 8413,
      "▁শিবির": 8414,
      "▁শাহরুখ": 8415,
      "▁গানে": 8416,
      "দিনের": 8417,
      "ধারী": 8418,
      "িল্ল": 8419,
      "০০০": 8420,
      "▁গুদ": 8421,
      "▁অবকাঠামো": 8422,
      "▁সন্ধ্যার": 8423,
      "শিপ": 8424,
      "▁বিস": 8425,
      "▁পেছনের": 8426,
      "▁পোস্টার": 8427,
      "▁গুগল": 8428,
      "ামি": 8429,
      "▁ম্যানেজার": 8430,
      "▁সিনেমার": 8431,
      "▁কাজেই": 8432,
      "▁এসেছিলেন": 8433,
      "▁ইউপির": 8434,
      "▁প্রকাশ্যে": 8435,
      "সঙ্গ": 8436,
      "▁আবৃত্তি": 8437,
      "মাণবিক": 8438,
      "৪.": 8439,
      "▁মিত্র": 8440,
      "▁নেবে।": 8441,
      "াপরাধ": 8442,
      "সংলগ্ন": 8443,
      "▁সহজেই": 8444,
      "ain": 8445,
      "▁সেমিন": 8446,
      "▁বর্জ্য": 8447,
      "▁অর্থের": 8448,
      "▁যুক্তরাজ্য": 8449,
      "▁মনিরুল": 8450,
      "সীম": 8451,
      "▁কেনাকা": 8452,
      "ভাষা": 8453,
      "জিও": 8454,
      "▁সপ্তম": 8455,
      "▁আইনগত": 8456,
      "▁অফিসের": 8457,
      "্রিষ্ট": 8458,
      "পরিষ": 8459,
      "▁সংশোধন": 8460,
      "▁মিনার": 8461,
      "▁৫৩": 8462,
      "কর্মীদের": 8463,
      "্বাভাবিক": 8464,
      "টায়।": 8465,
      "ঙ্ক্ষিত": 8466,
      "অন্য": 8467,
      "▁সের": 8468,
      "পাড়ায়": 8469,
      "▁সমাধানের": 8470,
      "▁ব্রাজিলের": 8471,
      "▁চারটার": 8472,
      "▁বিস্ময়": 8473,
      "▁খল": 8474,
      "▁মমতা": 8475,
      "▁টিক": 8476,
      "টিস": 8477,
      "▁not": 8478,
      "▁কর্মসংস্থান": 8479,
      "▁বললাম,": 8480,
      "▁মারাত্মক": 8481,
      "মাধ্যমিক": 8482,
      "▁মাথার": 8483,
      "পাইন": 8484,
      "▁ভূমিকম্প": 8485,
      "▁পর্বের": 8486,
      "মানুষ": 8487,
      "▁চিকিত্স": 8488,
      "▁বানানো": 8489,
      "▁ভরাট": 8490,
      "▁বৌ": 8491,
      "▁অর্থনীতির": 8492,
      "▁নিত": 8493,
      "▁বীজ": 8494,
      "▁চোর": 8495,
      "িজের": 8496,
      "▁উদ্ধারের": 8497,
      "▁করছি,": 8498,
      "▁নন,": 8499,
      "▁শতক": 8500,
      "▁রও": 8501,
      "▁দেন।\n": 8502,
      "▁সশস্ত্র": 8503,
      "▁সন্তু": 8504,
      "▁রাসায়নিক": 8505,
      "um": 8506,
      "আন": 8507,
      "▁আলোকচিত্র": 8508,
      "▁এড়িয়ে": 8509,
      "▁শফিউ": 8510,
      "▁ইরানের": 8511,
      "▁হুমায়ুন": 8512,
      "▁তিনিও": 8513,
      "▁প্রদর্শন": 8514,
      "▁১৯৪": 8515,
      "▁বিদ্যমান": 8516,
      "▁শিক্ষার্থী,": 8517,
      "▁হৃদয়": 8518,
      "▁গুন": 8519,
      "▁হজরত": 8520,
      "ংকার": 8521,
      "যাপ": 8522,
      "▁জলবায়ু": 8523,
      "উব": 8524,
      "▁ভাগই": 8525,
      "হাতে": 8526,
      "▁ঠিকাদার": 8527,
      "খবর": 8528,
      "▁এশিয়ান": 8529,
      "তামূলক": 8530,
      "▁N": 8531,
      "▁কোহ": 8532,
      "▁কোটা": 8533,
      "▁লাগবে।": 8534,
      "াধিকার": 8535,
      "▁বেগমের": 8536,
      "্কায়": 8537,
      "▁পিরোজ": 8538,
      "বিড়": 8539,
      "▁বৈদ": 8540,
      "তেন,": 8541,
      "▁পরাজিত": 8542,
      "▁অন্যরা": 8543,
      "যুদ্ধের": 8544,
      "▁ডুব": 8545,
      "▁কুড়িগ্রাম": 8546,
      "▁লিখেছেন": 8547,
      "▁ছিলাম।": 8548,
      "আরটি": 8549,
      "▁তালিকাভুক্ত": 8550,
      "▁অপরি": 8551,
      "পাইনবাব": 8552,
      "y.": 8553,
      "▁গিয়েছিলেন": 8554,
      "▁প্রবণতা": 8555,
      "ছে।’": 8556,
      "▁বিরোধিতা": 8557,
      "▁আতা": 8558,
      "▁দরপত্র": 8559,
      "▁তৈরিতে": 8560,
      "▁নিজেও": 8561,
      "াক্রমে": 8562,
      "▁প্রত্যাহারের": 8563,
      "▁নাছির": 8564,
      "▁গানটি": 8565,
      "▁হস্তক্ষেপ": 8566,
      "▁সদস্য।": 8567,
      "নামূলক": 8568,
      "সুন": 8569,
      "▁আছ": 8570,
      "▁হয়।এ": 8571,
      "ুমের": 8572,
      "▁বয়সের": 8573,
      "-৭": 8574,
      "▁খাম": 8575,
      "▁ইন্ডিয়া": 8576,
      "▁হয়নি,": 8577,
      "▁পালনের": 8578,
      "▁অঙ্ক": 8579,
      "বন্ধনে": 8580,
      "▁নার্স": 8581,
      "▁খুশ": 8582,
      "▁ধূ": 8583,
      "▁আমেরিকা": 8584,
      "ান্ধ": 8585,
      "▁উড়োজাহাজ": 8586,
      "▁টপ": 8587,
      "▁সুম": 8588,
      "-২৩": 8589,
      "▁আমেরিকান": 8590,
      "▁জেগে": 8591,
      "▁প্রয়াত": 8592,
      "ডাক": 8593,
      "▁পুক": 8594,
      "▁‘ফ": 8595,
      "বিসি": 8596,
      "▁মূল্যব": 8597,
      "▁স্প্যান": 8598,
      "ভান": 8599,
      "▁রাখেন": 8600,
      "শাকে": 8601,
      "▁ফুটপাত": 8602,
      "▁প্রক্রিয়ায়": 8603,
      "▁জখ": 8604,
      "▁উচ্চার": 8605,
      "▁শরণার্থী": 8606,
      "▁র‍্যা": 8607,
      "a.": 8608,
      "্ভুত": 8609,
      "-১২": 8610,
      "▁ছিলেন,": 8611,
      "▁(এন": 8612,
      "▁জনপ্রতিনিধ": 8613,
      "▁পত্রিকায়": 8614,
      "হতের": 8615,
      "▁অংশী": 8616,
      "▁কানে": 8617,
      "্রিম": 8618,
      "▁সংঘর্ষের": 8619,
      "▁বিবিসি": 8620,
      "▁লেনদেনের": 8621,
      "তিনি": 8622,
      "▁লিখতে": 8623,
      "▁অ্যাম্ব": 8624,
      "▁নিষ্পত্তি": 8625,
      "▁রয়টার্স": 8626,
      "▁বলি": 8627,
      "▁নিয়োজ": 8628,
      "▁গোলরক্ষ": 8629,
      "▁ফিট": 8630,
      "▁মনজুর": 8631,
      "▁বাংলায়": 8632,
      "▁do": 8633,
      "▁উন্মো": 8634,
      "▁that": 8635,
      "ডিসি": 8636,
      "▁ভাত": 8637,
      "▁কোতোয়ালি": 8638,
      "▁পারি,": 8639,
      "বাড়ির": 8640,
      "ূনতম": 8641,
      "▁পড়েছেন": 8642,
      "▁শ্রেষ্ঠ": 8643,
      "হারা": 8644,
      "▁মা-বাবা": 8645,
      "▁বৈষম্য": 8646,
      "▁আকার": 8647,
      "ফন": 8648,
      "১২": 8649,
      "▁মল্ল": 8650,
      "▁প্রজাত": 8651,
      "▁হেলাল": 8652,
      "▁জসিম": 8653,
      "▁মদ": 8654,
      "ীরের": 8655,
      "▁হারের": 8656,
      "▁বৈশিষ্ট": 8657,
      "পি।\n": 8658,
      "▁রেডিও": 8659,
      "▁দাঁড়া": 8660,
      "▁ভট্টা": 8661,
      "ood": 8662,
      "ায়িত": 8663,
      "▁রাব্ব": 8664,
      "▁বর্ধ": 8665,
      "▁ওপেন": 8666,
      "▁হির": 8667,
      "চাক": 8668,
      "▁গন্তব্য": 8669,
      "সীমা": 8670,
      "▁তফসিল": 8671,
      "▁করতে।": 8672,
      "▁দেশটিতে": 8673,
      "▁চেষ্ট": 8674,
      "▁ফুলের": 8675,
      "▁শয": 8676,
      "▁জর্জ": 8677,
      "▁দুদক": 8678,
      "▁পারমাণবিক": 8679,
      "▁মসজিদে": 8680,
      "▁দিয়েছে,": 8681,
      "▁দেননি।": 8682,
      "য়ং": 8683,
      "▁পরিবেশে": 8684,
      "শুধু": 8685,
      "▁সেটাও": 8686,
      "▁উইকেট।": 8687,
      "▁স্পিকার": 8688,
      "▁ধারালো": 8689,
      "ড়ানোর": 8690,
      "▁জানায়": 8691,
      "▁মিশ্র": 8692,
      "▁প্রাইভেট": 8693,
      "▁বদলি": 8694,
      "▁সংবর্ধনা": 8695,
      "▁বাতিলের": 8696,
      "বাক": 8697,
      "▁গরুর": 8698,
      "▁কোচের": 8699,
      "ডেন": 8700,
      "োহী": 8701,
      "▁R": 8702,
      "▁অভিভাবক": 8703,
      "প্রাচ": 8704,
      "▁দিলেন।": 8705,
      "▁পড়বে।": 8706,
      "গরি": 8707,
      "দাতা": 8708,
      "▁সমাপনী": 8709,
      "▁মোদির": 8710,
      "▁গভর্নর": 8711,
      "চেস্টার": 8712,
      "▁ডায়ের": 8713,
      "▁স্বপ্নের": 8714,
      "িসে": 8715,
      "▁পারিনি।": 8716,
      "▁সৃষ্টির": 8717,
      "▁সময়।": 8718,
      "▁বিরুদ্ধ": 8719,
      "মেই": 8720,
      "▁পরিচালনার": 8721,
      "▁ইন্ডাস্ট": 8722,
      "্যাতি": 8723,
      "▁অস্তিত্ব": 8724,
      "▁উপকরণ": 8725,
      "▁সাতজন": 8726,
      "▁অবিল": 8727,
      "▁ছাড়ার": 8728,
      "▁জিডি": 8729,
      "▁ইসলামিক": 8730,
      "▁ড্রে": 8731,
      "▁প্রচলিত": 8732,
      "▁পরেই": 8733,
      "▁সালাহ": 8734,
      "ভারতের": 8735,
      "▁উইন্ড": 8736,
      "▁টুক": 8737,
      "▁মণ্ডল": 8738,
      "▁অত্যা": 8739,
      "▁ফস": 8740,
      "▁ঠিকই": 8741,
      "▁রোগীদের": 8742,
      "শালা": 8743,
      "▁ন্যূনতম": 8744,
      "নিয়ার": 8745,
      "সমর": 8746,
      "▁আসেনি।": 8747,
      "▁খেলেছেন": 8748,
      "▁পেট্রলবো": 8749,
      "▁প্রকৃতি": 8750,
      "মাইল": 8751,
      "▁লোকের": 8752,
      "▁রিপাবলিকান": 8753,
      "▁অবিলম্বে": 8754,
      "▁কীর্ত": 8755,
      "ালেও": 8756,
      "▁বাঙালির": 8757,
      "▁আদায়ের": 8758,
      "▁মেরামত": 8759,
      "▁তাহের": 8760,
      "টেন": 8761,
      "্যবদ্ধ": 8762,
      "▁৬২": 8763,
      "▁মালয়েশিয়া": 8764,
      "▁হচ্ছিল।": 8765,
      "দস্য": 8766,
      "▁নয়টি": 8767,
      "▁বসত": 8768,
      "▁দিবসের": 8769,
      "th": 8770,
      "▁ডেই": 8771,
      "▁জাপান": 8772,
      "▁পেশায়": 8773,
      "হাতি": 8774,
      "▁আসিফ": 8775,
      "▁ওয়ানডেতে": 8776,
      "▁বিপরীত": 8777,
      "▁গাজ": 8778,
      "▁ইত্যাদি।": 8779,
      "▁সাক্ষাৎকার": 8780,
      "▁পারভেজ": 8781,
      "▁লিটন": 8782,
      "▁স্থাপনের": 8783,
      "▁লালমনির": 8784,
      "▁কয়লা": 8785,
      "থের": 8786,
      "▁বাগের": 8787,
      "▁অপারেটর": 8788,
      "▁৯৯": 8789,
      "িক্স": 8790,
      "▁বাড়বে।": 8791,
      "▁পড়ছে": 8792,
      "▁কথার": 8793,
      "শ্রে": 8794,
      "▁চলছে।\n": 8795,
      "▁ধাওয়া": 8796,
      "▁ভর্তির": 8797,
      "▁প্রকাশে": 8798,
      "▁পরস্প": 8799,
      "▁দাঁড়িয়েছে": 8800,
      "▁পরিচালনায়": 8801,
      "▁পাল্ট": 8802,
      "▁রাহুল": 8803,
      "▁ক্ষতিপূরণ": 8804,
      "▁জানানোর": 8805,
      "▁ঐক্যবদ্ধ": 8806,
      "▁কারাগার": 8807,
      "▁লুৎ": 8808,
      "গেট": 8809,
      "▁পল্লী": 8810,
      "▁পর্দায়": 8811,
      "▁পর্যট": 8812,
      "হাব": 8813,
      "▁sh": 8814,
      "▁সংবিধানের": 8815,
      "▁খাই": 8816,
      "’—": 8817,
      "▁তদার": 8818,
      "▁৮০০": 8819,
      "▁শেয়ারের": 8820,
      "প্রশাসন": 8821,
      "▁হোয়াইট": 8822,
      "▁শরিফ": 8823,
      "ওলানা": 8824,
      "▁মাইক্রোস": 8825,
      "▁স্ট্রাইকার": 8826,
      "বি।": 8827,
      "▁র‌্যাব": 8828,
      "▁পাসের": 8829,
      "বপুর": 8830,
      "▁মুক": 8831,
      "▁ত্রুটি": 8832,
      "▁চাঁদাবাজ": 8833,
      "▁করানো": 8834,
      "▁(ক": 8835,
      "▁খানে": 8836,
      "-দলীয়": 8837,
      "▁মায়": 8838,
      "▁ভুট": 8839,
      "-ত": 8840,
      "▁আসছেন।": 8841,
      "▁লাশটি": 8842,
      "▁ই-মে": 8843,
      "▁ব্যবধান": 8844,
      "▁হতেই": 8845,
      "▁ফ্রে": 8846,
      "▁ব্যানার": 8847,
      "▁মালিকদের": 8848,
      "▁পরাজ": 8849,
      "▁পেলেন": 8850,
      "হো": 8851,
      "▁স্মিথ": 8852,
      "সংখ্যা": 8853,
      "▁বিনিময়": 8854,
      "▁ফ্রান্সের": 8855,
      "গাজ": 8856,
      "িনিয়": 8857,
      "▁ভাইর": 8858,
      "▁গোপ": 8859,
      "এফের": 8860,
      "▁সালাউদ্দিন": 8861,
      "▁ল্যাপ": 8862,
      "▁আসামিকে": 8863,
      "শ্চিন্ত": 8864,
      "▁যুদ্ধাপরাধ": 8865,
      "▁ফজলুল": 8866,
      "▁নেটওয়ার্ক": 8867,
      "পাতে": 8868,
      "োয়ানা": 8869,
      "▁অনুভব": 8870,
      "▁স্টেট": 8871,
      "▁সাতটার": 8872,
      "▁আকারে": 8873,
      "বীণ": 8874,
      "▁উপযুক্ত": 8875,
      "▁সোহাগ": 8876,
      "▁জামায়াত-শ": 8877,
      "▁আব্দুল": 8878,
      "▁কাশেম": 8879,
      "▁পৃথিবী": 8880,
      "▁বটে": 8881,
      "▁কর্তৃপক্ষকে": 8882,
      "▁আর্ট": 8883,
      "▁হচ্ছে।\n": 8884,
      "▁রংপুরের": 8885,
      "▁৫৯": 8886,
      "▁রানী": 8887,
      "▁বিশ্লেষ": 8888,
      "েন্ডুল": 8889,
      "▁ঝর": 8890,
      "▁সূচ": 8891,
      "▁সম্পত্তি": 8892,
      "িংক": 8893,
      "▁কৌত": 8894,
      "▁পাড়": 8895,
      "▁(e)": 8896,
      "▁শাস্তির": 8897,
      "তলায়": 8898,
      "▁কেউই": 8899,
      "-পুরুষ": 8900,
      "▁পেয়েছি।": 8901,
      "▁আরে": 8902,
      "▁ধসে": 8903,
      "▁অসহায়": 8904,
      "▁নিউইয়র্কে": 8905,
      "▁জিপিএ-৫": 8906,
      "▁সমস্যায়": 8907,
      "▁রোনালদোর": 8908,
      "▁কুর": 8909,
      "▁নিয়োজিত": 8910,
      "▁বর্গ": 8911,
      "▁সরদার": 8912,
      "▁যাঁর": 8913,
      "▁পেত": 8914,
      "▁সেভাবে": 8915,
      "▁চর্চা": 8916,
      "▁বণ": 8917,
      "ers": 8918,
      "▁প্রতারণ": 8919,
      "কথা": 8920,
      "পমেন্ট": 8921,
      "▁সিআই": 8922,
      "▁চালান": 8923,
      "▁থানা-পুলিশ": 8924,
      "▁উপাদান": 8925,
      "▁চুরির": 8926,
      "াহা": 8927,
      "▁কাপ,": 8928,
      "▁সম্মিলিত": 8929,
      "▁অ্যাকশন": 8930,
      "▁করেছেন।\n": 8931,
      "▁অভিনয়ের": 8932,
      "▁সংলা": 8933,
      "জিত": 8934,
      "▁ডিসেম্বরে": 8935,
      "▁সহিংসতার": 8936,
      "▁অদ্ভুত": 8937,
      "▁খনন": 8938,
      "ক্রমের": 8939,
      "▁পুরান": 8940,
      "▁চাই।’": 8941,
      "াব্যবস্থাপক": 8942,
      "ধারা": 8943,
      "ূহ": 8944,
      "▁মসজিদের": 8945,
      "▁ফাউন্ডেশন": 8946,
      "▁তিনজনের": 8947,
      "বাহিনীর": 8948,
      "▁চলেছে।": 8949,
      "েহারা": 8950,
      "▁জানুয়ারির": 8951,
      "▁কয়েকবার": 8952,
      "ুনির্বাচ": 8953,
      "▁স্বত": 8954,
      "পক্ষীয়": 8955,
      "টেইনার": 8956,
      "চ্ছি": 8957,
      "▁সড়কটি": 8958,
      "▁পর্যালোচনা": 8959,
      "▁নৈতিক": 8960,
      "▁আকতার": 8961,
      "▁স্বরাষ্ট্রমন্ত্রী": 8962,
      "▁পশ্চিমা": 8963,
      "▁ক্যানসার": 8964,
      "পাতা": 8965,
      "জাগ": 8966,
      "▁ঠিকাদ": 8967,
      "▁জোরদার": 8968,
      "▁রাখে": 8969,
      "▁জড়ো": 8970,
      "▁ইলেকট্রনিক": 8971,
      "১৮": 8972,
      "গারে": 8973,
      "▁করব।’": 8974,
      "▁৬৬": 8975,
      "েক্ট": 8976,
      "▁ঠেকাতে": 8977,
      "▁আত্মীয়স্ব": 8978,
      "▁খাগড়া": 8979,
      "যাত্রার": 8980,
      "▁শারমিন": 8981,
      "▁সাউথ": 8982,
      "▁শেষের": 8983,
      "▁টুর্নামেন্টে": 8984,
      "▁ছুঁয়ে": 8985,
      "▁ডিএন": 8986,
      "প্রতিষ্ঠ": 8987,
      "ুলার": 8988,
      "▁(২৩": 8989,
      "▁তুলনা": 8990,
      "▁ময়মনসিংহের": 8991,
      "▁তারকার": 8992,
      "-ছ": 8993,
      "▁মেলে": 8994,
      "▁ওপেনার": 8995,
      "▁ইইউ": 8996,
      "চ্যুত": 8997,
      "য়েম": 8998,
      "▁ভদ্র": 8999,
      "▁জামান": 9000,
      "ফোর্ড": 9001,
      "চন্দ্র": 9002,
      "▁৬৭": 9003,
      "▁বাংলাদেশিদের": 9004,
      "▁লুই": 9005,
      "▁ঘটনা।": 9006,
      "▁ম্যানেজ": 9007,
      "▁মনি": 9008,
      "▁দেয়নি।": 9009,
      "▁বিদ্যুৎকেন্দ্র": 9010,
      "াইনের": 9011,
      "▁খাস": 9012,
      "স্থানের": 9013,
      "▁প্রতিবন্ধী": 9014,
      "▁আন্তরিক": 9015,
      "উই": 9016,
      "নোল": 9017,
      "▁খসড়া": 9018,
      "▁লাঠি": 9019,
      "▁করত।": 9020,
      "▁জামায়াতে": 9021,
      "▁চা-চামচ,": 9022,
      "▁সতীর্থ": 9023,
      "▁করলেন,": 9024,
      "▁পারভ": 9025,
      "আমাদের": 9026,
      "▁কড়া": 9027,
      "▁মিলি": 9028,
      "▁আশপাশে": 9029,
      "▁ঢুকতে": 9030,
      "▁জাতীয়তা": 9031,
      "-২০১": 9032,
      "▁আঁকা": 9033,
      "▁চুপ": 9034,
      "▁রণবীর": 9035,
      "াহীন": 9036,
      "▁দাবির": 9037,
      "▁যতটা": 9038,
      "▁সংস্কৃতির": 9039,
      "▁গাঁ": 9040,
      "▁এএফপি।\n": 9041,
      "▁খালের": 9042,
      "▁বাক্স": 9043,
      "▁অস্ত্রের": 9044,
      "▁তিনিই": 9045,
      "▁স্বয়ং": 9046,
      "▁হাসান।": 9047,
      "▁হয়েছিলেন।": 9048,
      "▁দুশ্চিন্ত": 9049,
      "্দী": 9050,
      "▁অভ্যাস": 9051,
      "▁পুলিশে": 9052,
      "▁উদ্‌যাপন": 9053,
      "▁স্থানান্তর": 9054,
      "▁বাচ্চা": 9055,
      "জয়ী": 9056,
      "▁প্রকল্পে": 9057,
      "▁হতাশা": 9058,
      "▁মেশিন": 9059,
      "▁পেট": 9060,
      "▁ফ্লাইট": 9061,
      "▁খ্রিষ্ট": 9062,
      "▁হননি।": 9063,
      "▁ইটভা": 9064,
      "▁অ্যাভ": 9065,
      "▁যাই।": 9066,
      "▁পরোয়ানা": 9067,
      "▁নেবেন।": 9068,
      "▁ফিলিপ": 9069,
      "গড়া": 9070,
      "▁লঙ্ঘন": 9071,
      "▁ফ্রি": 9072,
      "▁পাচ্": 9073,
      "▁আজিজুল": 9074,
      "ভর": 9075,
      "▁বেই": 9076,
      "▁আত্মসমর": 9077,
      "▁আফ্রিক": 9078,
      "▁সৃষ্ট": 9079,
      "▁নিকট": 9080,
      "▁পাঠাতে": 9081,
      "লোক": 9082,
      "▁নামক": 9083,
      "▁এমপি": 9084,
      "▁বৌদ্ধ": 9085,
      "▁উত্তরে": 9086,
      "▁রাউন্ড": 9087,
      "▁তোমরা": 9088,
      "▁at": 9089,
      "ীতাকু": 9090,
      "র্ঘ্য": 9091,
      "▁বাবাকে": 9092,
      "পাড়া,": 9093,
      "▁চেম্বার": 9094,
      "োক্রে": 9095,
      "▁বোনের": 9096,
      "▁বানা": 9097,
      "▁এক্সপ্রেস": 9098,
      "▁ছবিটির": 9099,
      "▁রিমান্ডে": 9100,
      "ঙ্গু": 9101,
      "বারে": 9102,
      "▁(৩৫)": 9103,
      "▁ব্যাটাল": 9104,
      "▁কমেছে।": 9105,
      "ave": 9106,
      "▁কপ": 9107,
      "ঘটনার": 9108,
      "▁স্থল": 9109,
      "▁বদর": 9110,
      "▁হিসেবে।": 9111,
      "-২১": 9112,
      "▁কনটেইনার": 9113,
      "▁চীনা": 9114,
      "▁শিক্ষাপ্রতিষ্ঠানের": 9115,
      "▁মহেশ": 9116,
      "▁সহায়ক": 9117,
      "▁হাওয়া": 9118,
      "আদাল": 9119,
      "▁গল্পের": 9120,
      "▁মেয়াদে": 9121,
      "▁খুদে": 9122,
      "▁দেখলে": 9123,
      "▁উইলিয়াম": 9124,
      "▁নদ": 9125,
      "স্থানে": 9126,
      "▁সৌন্দর্য": 9127,
      "বার্গ": 9128,
      "ঝি": 9129,
      "▁ডাই": 9130,
      "▁আদিবাসী": 9131,
      "▁নেত্রকো": 9132,
      "এসপি": 9133,
      "▁কাউন্সিলের": 9134,
      "▁লড়": 9135,
      "৫),": 9136,
      "▁নেবেন": 9137,
      "▁৮৫": 9138,
      "▁উদ্ভ": 9139,
      "চ্ছেদের": 9140,
      "▁হ্র": 9141,
      "▁প্রের": 9142,
      "▁কার্যক্রমের": 9143,
      "্যারি": 9144,
      "▁মেয়েটির": 9145,
      "▁ন্যায়": 9146,
      "মতে,": 9147,
      "▁বেসামরিক": 9148,
      "▁মাহমুদউল্লাহ": 9149,
      "▁অক্স": 9150,
      "▁সেকেন্ড": 9151,
      "ভঙ্গ": 9152,
      "প্তি": 9153,
      "▁গোল্ড": 9154,
      "িত,": 9155,
      "▁পাশেই": 9156,
      "▁কালী": 9157,
      "▁২০০১": 9158,
      "াইলে": 9159,
      "ive": 9160,
      "▁স্ত্রীকে": 9161,
      "▁বিনিয়োগের": 9162,
      "মানিক": 9163,
      "।গতকাল": 9164,
      "-১৯": 9165,
      "▁যেত": 9166,
      "▁কাহিনি": 9167,
      "▁বিশ্বাস,": 9168,
      "▁সীমাবদ্ধ": 9169,
      "▁পেছন": 9170,
      "▁শাকিব": 9171,
      "▁করছি।’": 9172,
      "াহার": 9173,
      "▁৭১": 9174,
      "▁দুপুরের": 9175,
      "▁জঙ্গিদের": 9176,
      "▁পোশাকের": 9177,
      "▁যাবেন।": 9178,
      "▁অনেকে।": 9179,
      "▁আমেরিকায়": 9180,
      "ধ্যেই": 9181,
      "▁প্রশংস": 9182,
      "▁দুইটার": 9183,
      "▁হোম": 9184,
      "▁অস্বাভাবিক": 9185,
      "▁সামর্থ্য": 9186,
      "▁করেছিলেন,": 9187,
      "▁শক্তির": 9188,
      "▁পর্ত": 9189,
      "▁করাতে": 9190,
      "ৃত্ব": 9191,
      "▁অপরাধে": 9192,
      "▁বিজিবির": 9193,
      "ুক,": 9194,
      "ব্দের": 9195,
      "▁সাভ": 9196,
      "য়।": 9197,
      "▁মজা": 9198,
      "▁নড়": 9199,
      "ুক।": 9200,
      "▁আশ্র": 9201,
      "বার্ট": 9202,
      "▁রেখেছেন": 9203,
      "▁ছিনিয়ে": 9204,
      "▁আবিষ্কার": 9205,
      "ডেন্ট": 9206,
      "▁কৌঁসুলি": 9207,
      "▁মও": 9208,
      "▁ধরন": 9209,
      "▁ঠেক": 9210,
      "বিত": 9211,
      "▁আর্জেন্টিনার": 9212,
      "ূলে": 9213,
      "নির্বাচন": 9214,
      "–এর": 9215,
      "▁ধরিয়ে": 9216,
      "▁বিরাজ": 9217,
      "গুলোও": 9218,
      "▁নারী-পুরুষ": 9219,
      "▁D": 9220,
      "ভিউ": 9221,
      "লাতে": 9222,
      "▁উত্তেজনা": 9223,
      "আওয়ামী": 9224,
      "▁চালের": 9225,
      "▁থাকুন।": 9226,
      "▁ধারণা,": 9227,
      "▁প্রত্যক্ষদর্শী": 9228,
      "▁অগ্নিকা": 9229,
      "▁জেম": 9230,
      "▁প্রকাশনা": 9231,
      "▁বিপ্লব": 9232,
      "সুদ": 9233,
      "▁পর্তুগ": 9234,
      "▁নিষ্": 9235,
      "▁গ্যালার": 9236,
      "শহ": 9237,
      "▁৬৮": 9238,
      "▁কৃতজ্ঞ": 9239,
      "▁কর্মচার": 9240,
      "▁কবিতার": 9241,
      "▁নমুনা": 9242,
      "▁নেপাল": 9243,
      "▁কোয়ার্টার": 9244,
      "▁পড়েছেন।": 9245,
      "▁খালাস": 9246,
      "▁কমাতে": 9247,
      "ষি": 9248,
      "▁বাস্তবায়নে": 9249,
      "▁সীমান্তে": 9250,
      "▁একুশে": 9251,
      "tr": 9252,
      "▁দায়িত্বশীল": 9253,
      "▁সমাধানে": 9254,
      "▁সন্দেহভাজন": 9255,
      "কাম": 9256,
      "▁২০টি": 9257,
      "▁নিচ্ছে": 9258,
      "স্কের": 9259,
      "▁মোতায়েন": 9260,
      "▁সাতক্ষীরা": 9261,
      "▁নির্দ": 9262,
      "্লাস": 9263,
      "Answer": 9264,
      "▁গেট": 9265,
      "লিপি": 9266,
      "▁উদ্যোক্তা": 9267,
      "▁আশার": 9268,
      "▁টাঙ্গাইল": 9269,
      "আমরা": 9270,
      "সম্মত": 9271,
      "▁গন্ধ": 9272,
      "▁(এম": 9273,
      "ণ্ডে": 9274,
      "▁দিয়েছি।": 9275,
      "▁মেট্রিক": 9276,
      "নেল": 9277,
      "▁ফেরদৌস": 9278,
      "কিং": 9279,
      "▁সহযোগিতার": 9280,
      "গতির": 9281,
      "▁জন,": 9282,
      "▁পদ্ম": 9283,
      "▁স্যামসাং": 9284,
      "▁ম্যাচেই": 9285,
      "▁পুনর্": 9286,
      "তদন্ত)": 9287,
      "▁জখম": 9288,
      "্বিক": 9289,
      "▁ওয়েল": 9290,
      "▁ওবামা": 9291,
      "▁পূজা": 9292,
      "▁কর্মকাণ্ডের": 9293,
      "ছার": 9294,
      "▁E": 9295,
      "▁টাওয়ার": 9296,
      "বিত্ত": 9297,
      "▁১১টি": 9298,
      "▁সরঞ্জ": 9299,
      "▁শিক্ষার্থীরা।": 9300,
      "▁নিউইয়র্কের": 9301,
      "▁পুষ্টি": 9302,
      "▁আলু": 9303,
      "▁ইউএস": 9304,
      "▁বৈদেশিক": 9305,
      "বিশিষ্ট": 9306,
      "▁অন্যায়": 9307,
      "▁নরসিং": 9308,
      "▁দাঁড়াতে": 9309,
      "শনে": 9310,
      "▁আসে,": 9311,
      "▁মরিচ": 9312,
      "▁র‍্যাব": 9313,
      ".(": 9314,
      "ামাণ": 9315,
      "▁বহুনির্বাচ": 9316,
      "▁আহম্মেদ": 9317,
      "▁ক্যারিয়ারের": 9318,
      "▁ভাস্কর": 9319,
      "জ্জা": 9320,
      "▁যুদ্ধের": 9321,
      "ড়ি।": 9322,
      "▁দ্বীপ": 9323,
      "▁রেখেছে।": 9324,
      "▁আগে।": 9325,
      "১৬": 9326,
      "টাকা": 9327,
      "▁আসর": 9328,
      "মণ্ডল": 9329,
      "▁বেলায়": 9330,
      "▁ছুট": 9331,
      "▁নাম।": 9332,
      "▁রকমের": 9333,
      "▁কোচিং": 9334,
      "▁উড়ে": 9335,
      "▁গুঁড়া": 9336,
      "▁লুকিয়ে": 9337,
      "▁লিভার": 9338,
      "▁বিস্তার": 9339,
      "ামুটি": 9340,
      "▁সিঁ": 9341,
      "▁সায়েন্স": 9342,
      "▁মঈন": 9343,
      "very": 9344,
      "▁মেহ": 9345,
      "▁চমৎকার": 9346,
      "্টু": 9347,
      "▁সম্প্রচার": 9348,
      "▁ডেভেলপমেন্ট": 9349,
      "▁‘বাংলাদেশ": 9350,
      "▁২০০৫": 9351,
      "ানকে": 9352,
      "▁উপকমিশনার": 9353,
      "▁বাঁচাতে": 9354,
      ")ব্যব": 9355,
      "▁করবেন,": 9356,
      "▁কমেছে": 9357,
      "ড়ো": 9358,
      "▁ফরহাদ": 9359,
      "▁এড়াতে": 9360,
      "▁চাঁপাইনবাব": 9361,
      "▁‘এটা": 9362,
      "▁কানাড": 9363,
      "▁আবাহনী": 9364,
      "▁হেফাজতে": 9365,
      "▁করল।": 9366,
      "▁ঢাকা\n": 9367,
      "িত্যক্ত": 9368,
      "▁জিতেছে": 9369,
      "▁ভিক": 9370,
      "▁কাছেই": 9371,
      "বাড়িতে": 9372,
      "কিন": 9373,
      "ামুল": 9374,
      "▁সাজিয়ে": 9375,
      "▁আসন্ন": 9376,
      "▁প্রাধান": 9377,
      "▁নিপীড়": 9378,
      "▁টেন্ডুল": 9379,
      "বিশেষ": 9380,
      "▁দিয়েছিল।": 9381,
      "▁মাহবুবুর": 9382,
      "▁দূতাবাসের": 9383,
      "▁বাবদ": 9384,
      "▁শ্রমিকের": 9385,
      "▁ঘূর্ণ": 9386,
      "▁খালেদ": 9387,
      "-সুবিধা": 9388,
      "গঞ্জ,": 9389,
      "▁কন্যা": 9390,
      "▁সঙ্গেও": 9391,
      "ভাবিকভাবে": 9392,
      "▁অভিনন্দন": 9393,
      "ন্ত্রিত": 9394,
      "।গত": 9395,
      "▁নাঈ": 9396,
      "▁সাধ": 9397,
      "▁ইঞ্চি": 9398,
      "ও)": 9399,
      "পূর্ব": 9400,
      "▁তেলের": 9401,
      "▁ফেডারেশন": 9402,
      "ud": 9403,
      "৩।": 9404,
      "▁নিত্য": 9405,
      "▁(সা": 9406,
      "▁ভাঙন": 9407,
      "০)।": 9408,
      "ুলেন্স": 9409,
      "শিক্ষক": 9410,
      "▁খুলনার": 9411,
      "▁তথা": 9412,
      "ৈত": 9413,
      "▁ঘটতে": 9414,
      "▁পাঁচটার": 9415,
      "▁রোমা": 9416,
      "▁লাগাতে": 9417,
      "▁যুগে": 9418,
      "▁তারিখে": 9419,
      "▁উপযোগী": 9420,
      "▁পদপ্রার্থী": 9421,
      "▁উপেক্ষা": 9422,
      "▁(প্র": 9423,
      "▁ইউটি": 9424,
      "▁মজিব": 9425,
      "▁খানিকটা": 9426,
      "▁ঘরোয়া": 9427,
      "▁অতিক্রম": 9428,
      "▁ডা.": 9429,
      "▁হুই": 9430,
      "িতা।": 9431,
      "▁২০১৯": 9432,
      "ইয়ের": 9433,
      "▁(তদন্ত)": 9434,
      "▁বন্ধুত্ব": 9435,
      "াইট": 9436,
      "▁উপস্থিতিতে": 9437,
      "▁বার্সেলোনার": 9438,
      "▁যুবকের": 9439,
      "িসম্প": 9440,
      "সম্পর্ক": 9441,
      "▁পাপ": 9442,
      "▁ছড়া": 9443,
      "▁লক্ষ্ম": 9444,
      "দিব": 9445,
      "▁সচেতনতা": 9446,
      "ess": 9447,
      "▁ইন্ডিজের": 9448,
      "পরিবহন": 9449,
      "।ম": 9450,
      "▁কাঠামো": 9451,
      "রিটি": 9452,
[...]
